{".class":"MypyFile","_fullname":"transformers.convert_slow_tokenizer","future_import_flags":[],"is_partial_stub_package":false,"is_stub":false,"names":{".class":"SymbolTable","AddedToken":{".class":"SymbolTableNode","kind":"Gdef","node":{".class":"Var","flags":["is_suppressed_import","is_ready","is_inferred"],"fullname":"transformers.convert_slow_tokenizer.AddedToken","name":"AddedToken","setter_type":null,"type":{".class":"AnyType","missing_import_name":"transformers.convert_slow_tokenizer.AddedToken","source_any":null,"type_of_any":3}}},"AlbertConverter":{".class":"SymbolTableNode","kind":"Gdef","node":{".class":"TypeInfo","_promote":[],"abstract_attributes":[],"alt_promote":null,"bases":["transformers.convert_slow_tokenizer.SpmConverter"],"dataclass_transform_spec":null,"declared_metaclass":null,"defn":{".class":"ClassDef","fullname":"transformers.convert_slow_tokenizer.AlbertConverter","name":"AlbertConverter","type_vars":[]},"deletable_attributes":[],"deprecated":null,"flags":[],"fullname":"transformers.convert_slow_tokenizer.AlbertConverter","has_param_spec_type":false,"metaclass_type":null,"metadata":{},"module_name":"transformers.convert_slow_tokenizer","mro":["transformers.convert_slow_tokenizer.AlbertConverter","transformers.convert_slow_tokenizer.SpmConverter","transformers.convert_slow_tokenizer.Converter","builtins.object"],"names":{".class":"SymbolTable","normalizer":{".class":"SymbolTableNode","kind":"Mdef","node":{".class":"FuncDef","abstract_status":0,"arg_kinds":[0,0],"arg_names":["self","proto"],"dataclass_transform_spec":null,"deprecated":null,"flags":[],"fullname":"transformers.convert_slow_tokenizer.AlbertConverter.normalizer","name":"normalizer","original_first_arg":"self","type":null}},"post_processor":{".class":"SymbolTableNode","kind":"Mdef","node":{".class":"FuncDef","abstract_status":0,"arg_kinds":[0],"arg_names":["self"],"dataclass_transform_spec":null,"deprecated":null,"flags":[],"fullname":"transformers.convert_slow_tokenizer.AlbertConverter.post_processor","name":"post_processor","original_first_arg":"self","type":null}},"vocab":{".class":"SymbolTableNode","kind":"Mdef","node":{".class":"FuncDef","abstract_status":0,"arg_kinds":[0,0],"arg_names":["self","proto"],"dataclass_transform_spec":null,"deprecated":null,"flags":[],"fullname":"transformers.convert_slow_tokenizer.AlbertConverter.vocab","name":"vocab","original_first_arg":"self","type":null}}},"self_type":{".class":"TypeVarType","default":{".class":"AnyType","missing_import_name":null,"source_any":null,"type_of_any":4},"fullname":"transformers.convert_slow_tokenizer.AlbertConverter.Self","id":0,"name":"Self","namespace":"","upper_bound":"transformers.convert_slow_tokenizer.AlbertConverter","values":[],"variance":0},"slots":null,"tuple_type":null,"type_vars":[],"typeddict_type":null}},"BPE":{".class":"SymbolTableNode","kind":"Gdef","node":{".class":"Var","flags":["is_suppressed_import","is_ready","is_inferred"],"fullname":"transformers.convert_slow_tokenizer.BPE","name":"BPE","setter_type":null,"type":{".class":"AnyType","missing_import_name":"transformers.convert_slow_tokenizer.BPE","source_any":null,"type_of_any":3}}},"BarthezConverter":{".class":"SymbolTableNode","kind":"Gdef","node":{".class":"TypeInfo","_promote":[],"abstract_attributes":[],"alt_promote":null,"bases":["transformers.convert_slow_tokenizer.SpmConverter"],"dataclass_transform_spec":null,"declared_metaclass":null,"defn":{".class":"ClassDef","fullname":"transformers.convert_slow_tokenizer.BarthezConverter","name":"BarthezConverter","type_vars":[]},"deletable_attributes":[],"deprecated":null,"flags":[],"fullname":"transformers.convert_slow_tokenizer.BarthezConverter","has_param_spec_type":false,"metaclass_type":null,"metadata":{},"module_name":"transformers.convert_slow_tokenizer","mro":["transformers.convert_slow_tokenizer.BarthezConverter","transformers.convert_slow_tokenizer.SpmConverter","transformers.convert_slow_tokenizer.Converter","builtins.object"],"names":{".class":"SymbolTable","post_processor":{".class":"SymbolTableNode","kind":"Mdef","node":{".class":"FuncDef","abstract_status":0,"arg_kinds":[0],"arg_names":["self"],"dataclass_transform_spec":null,"deprecated":null,"flags":[],"fullname":"transformers.convert_slow_tokenizer.BarthezConverter.post_processor","name":"post_processor","original_first_arg":"self","type":null}},"unk_id":{".class":"SymbolTableNode","kind":"Mdef","node":{".class":"FuncDef","abstract_status":0,"arg_kinds":[0,0],"arg_names":["self","proto"],"dataclass_transform_spec":null,"deprecated":null,"flags":[],"fullname":"transformers.convert_slow_tokenizer.BarthezConverter.unk_id","name":"unk_id","original_first_arg":"self","type":null}}},"self_type":{".class":"TypeVarType","default":{".class":"AnyType","missing_import_name":null,"source_any":null,"type_of_any":4},"fullname":"transformers.convert_slow_tokenizer.BarthezConverter.Self","id":0,"name":"Self","namespace":"","upper_bound":"transformers.convert_slow_tokenizer.BarthezConverter","values":[],"variance":0},"slots":null,"tuple_type":null,"type_vars":[],"typeddict_type":null}},"BertConverter":{".class":"SymbolTableNode","kind":"Gdef","node":{".class":"TypeInfo","_promote":[],"abstract_attributes":[],"alt_promote":null,"bases":["transformers.convert_slow_tokenizer.Converter"],"dataclass_transform_spec":null,"declared_metaclass":null,"defn":{".class":"ClassDef","fullname":"transformers.convert_slow_tokenizer.BertConverter","name":"BertConverter","type_vars":[]},"deletable_attributes":[],"deprecated":null,"flags":[],"fullname":"transformers.convert_slow_tokenizer.BertConverter","has_param_spec_type":false,"metaclass_type":null,"metadata":{},"module_name":"transformers.convert_slow_tokenizer","mro":["transformers.convert_slow_tokenizer.BertConverter","transformers.convert_slow_tokenizer.Converter","builtins.object"],"names":{".class":"SymbolTable","converted":{".class":"SymbolTableNode","kind":"Mdef","node":{".class":"FuncDef","abstract_status":0,"arg_kinds":[0],"arg_names":["self"],"dataclass_transform_spec":null,"deprecated":null,"flags":["is_trivial_self"],"fullname":"transformers.convert_slow_tokenizer.BertConverter.converted","name":"converted","original_first_arg":"self","type":{".class":"CallableType","arg_kinds":[0],"arg_names":["self"],"arg_types":["transformers.convert_slow_tokenizer.BertConverter"],"fallback":"builtins.function","from_concatenate":false,"implicit":false,"imprecise_arg_kinds":false,"is_bound":false,"is_ellipsis_args":false,"name":"converted of BertConverter","ret_type":{".class":"AnyType","missing_import_name":"transformers.convert_slow_tokenizer.Tokenizer","source_any":null,"type_of_any":3},"type_guard":null,"type_is":null,"unpack_kwargs":false,"variables":[]}}}},"self_type":{".class":"TypeVarType","default":{".class":"AnyType","missing_import_name":null,"source_any":null,"type_of_any":4},"fullname":"transformers.convert_slow_tokenizer.BertConverter.Self","id":0,"name":"Self","namespace":"","upper_bound":"transformers.convert_slow_tokenizer.BertConverter","values":[],"variance":0},"slots":null,"tuple_type":null,"type_vars":[],"typeddict_type":null}},"BertGenerationConverter":{".class":"SymbolTableNode","kind":"Gdef","node":{".class":"TypeInfo","_promote":[],"abstract_attributes":[],"alt_promote":null,"bases":["transformers.convert_slow_tokenizer.SpmConverter"],"dataclass_transform_spec":null,"declared_metaclass":null,"defn":{".class":"ClassDef","fullname":"transformers.convert_slow_tokenizer.BertGenerationConverter","name":"BertGenerationConverter","type_vars":[]},"deletable_attributes":[],"deprecated":null,"flags":[],"fullname":"transformers.convert_slow_tokenizer.BertGenerationConverter","has_param_spec_type":false,"metaclass_type":null,"metadata":{},"module_name":"transformers.convert_slow_tokenizer","mro":["transformers.convert_slow_tokenizer.BertGenerationConverter","transformers.convert_slow_tokenizer.SpmConverter","transformers.convert_slow_tokenizer.Converter","builtins.object"],"names":{".class":"SymbolTable"},"self_type":{".class":"TypeVarType","default":{".class":"AnyType","missing_import_name":null,"source_any":null,"type_of_any":4},"fullname":"transformers.convert_slow_tokenizer.BertGenerationConverter.Self","id":0,"name":"Self","namespace":"","upper_bound":"transformers.convert_slow_tokenizer.BertGenerationConverter","values":[],"variance":0},"slots":null,"tuple_type":null,"type_vars":[],"typeddict_type":null}},"BigBirdConverter":{".class":"SymbolTableNode","kind":"Gdef","node":{".class":"TypeInfo","_promote":[],"abstract_attributes":[],"alt_promote":null,"bases":["transformers.convert_slow_tokenizer.SpmConverter"],"dataclass_transform_spec":null,"declared_metaclass":null,"defn":{".class":"ClassDef","fullname":"transformers.convert_slow_tokenizer.BigBirdConverter","name":"BigBirdConverter","type_vars":[]},"deletable_attributes":[],"deprecated":null,"flags":[],"fullname":"transformers.convert_slow_tokenizer.BigBirdConverter","has_param_spec_type":false,"metaclass_type":null,"metadata":{},"module_name":"transformers.convert_slow_tokenizer","mro":["transformers.convert_slow_tokenizer.BigBirdConverter","transformers.convert_slow_tokenizer.SpmConverter","transformers.convert_slow_tokenizer.Converter","builtins.object"],"names":{".class":"SymbolTable","post_processor":{".class":"SymbolTableNode","kind":"Mdef","node":{".class":"FuncDef","abstract_status":0,"arg_kinds":[0],"arg_names":["self"],"dataclass_transform_spec":null,"deprecated":null,"flags":[],"fullname":"transformers.convert_slow_tokenizer.BigBirdConverter.post_processor","name":"post_processor","original_first_arg":"self","type":null}}},"self_type":{".class":"TypeVarType","default":{".class":"AnyType","missing_import_name":null,"source_any":null,"type_of_any":4},"fullname":"transformers.convert_slow_tokenizer.BigBirdConverter.Self","id":0,"name":"Self","namespace":"","upper_bound":"transformers.convert_slow_tokenizer.BigBirdConverter","values":[],"variance":0},"slots":null,"tuple_type":null,"type_vars":[],"typeddict_type":null}},"BlenderbotConverter":{".class":"SymbolTableNode","kind":"Gdef","node":{".class":"TypeInfo","_promote":[],"abstract_attributes":[],"alt_promote":null,"bases":["transformers.convert_slow_tokenizer.Converter"],"dataclass_transform_spec":null,"declared_metaclass":null,"defn":{".class":"ClassDef","fullname":"transformers.convert_slow_tokenizer.BlenderbotConverter","name":"BlenderbotConverter","type_vars":[]},"deletable_attributes":[],"deprecated":null,"flags":[],"fullname":"transformers.convert_slow_tokenizer.BlenderbotConverter","has_param_spec_type":false,"metaclass_type":null,"metadata":{},"module_name":"transformers.convert_slow_tokenizer","mro":["transformers.convert_slow_tokenizer.BlenderbotConverter","transformers.convert_slow_tokenizer.Converter","builtins.object"],"names":{".class":"SymbolTable","converted":{".class":"SymbolTableNode","kind":"Mdef","node":{".class":"FuncDef","abstract_status":0,"arg_kinds":[0],"arg_names":["self"],"dataclass_transform_spec":null,"deprecated":null,"flags":["is_trivial_self"],"fullname":"transformers.convert_slow_tokenizer.BlenderbotConverter.converted","name":"converted","original_first_arg":"self","type":{".class":"CallableType","arg_kinds":[0],"arg_names":["self"],"arg_types":["transformers.convert_slow_tokenizer.BlenderbotConverter"],"fallback":"builtins.function","from_concatenate":false,"implicit":false,"imprecise_arg_kinds":false,"is_bound":false,"is_ellipsis_args":false,"name":"converted of BlenderbotConverter","ret_type":{".class":"AnyType","missing_import_name":"transformers.convert_slow_tokenizer.Tokenizer","source_any":null,"type_of_any":3},"type_guard":null,"type_is":null,"unpack_kwargs":false,"variables":[]}}}},"self_type":{".class":"TypeVarType","default":{".class":"AnyType","missing_import_name":null,"source_any":null,"type_of_any":4},"fullname":"transformers.convert_slow_tokenizer.BlenderbotConverter.Self","id":0,"name":"Self","namespace":"","upper_bound":"transformers.convert_slow_tokenizer.BlenderbotConverter","values":[],"variance":0},"slots":null,"tuple_type":null,"type_vars":[],"typeddict_type":null}},"CLIPConverter":{".class":"SymbolTableNode","kind":"Gdef","node":{".class":"TypeInfo","_promote":[],"abstract_attributes":[],"alt_promote":null,"bases":["transformers.convert_slow_tokenizer.Converter"],"dataclass_transform_spec":null,"declared_metaclass":null,"defn":{".class":"ClassDef","fullname":"transformers.convert_slow_tokenizer.CLIPConverter","name":"CLIPConverter","type_vars":[]},"deletable_attributes":[],"deprecated":null,"flags":[],"fullname":"transformers.convert_slow_tokenizer.CLIPConverter","has_param_spec_type":false,"metaclass_type":null,"metadata":{},"module_name":"transformers.convert_slow_tokenizer","mro":["transformers.convert_slow_tokenizer.CLIPConverter","transformers.convert_slow_tokenizer.Converter","builtins.object"],"names":{".class":"SymbolTable","converted":{".class":"SymbolTableNode","kind":"Mdef","node":{".class":"FuncDef","abstract_status":0,"arg_kinds":[0],"arg_names":["self"],"dataclass_transform_spec":null,"deprecated":null,"flags":["is_trivial_self"],"fullname":"transformers.convert_slow_tokenizer.CLIPConverter.converted","name":"converted","original_first_arg":"self","type":{".class":"CallableType","arg_kinds":[0],"arg_names":["self"],"arg_types":["transformers.convert_slow_tokenizer.CLIPConverter"],"fallback":"builtins.function","from_concatenate":false,"implicit":false,"imprecise_arg_kinds":false,"is_bound":false,"is_ellipsis_args":false,"name":"converted of CLIPConverter","ret_type":{".class":"AnyType","missing_import_name":"transformers.convert_slow_tokenizer.Tokenizer","source_any":null,"type_of_any":3},"type_guard":null,"type_is":null,"unpack_kwargs":false,"variables":[]}}}},"self_type":{".class":"TypeVarType","default":{".class":"AnyType","missing_import_name":null,"source_any":null,"type_of_any":4},"fullname":"transformers.convert_slow_tokenizer.CLIPConverter.Self","id":0,"name":"Self","namespace":"","upper_bound":"transformers.convert_slow_tokenizer.CLIPConverter","values":[],"variance":0},"slots":null,"tuple_type":null,"type_vars":[],"typeddict_type":null}},"CamembertConverter":{".class":"SymbolTableNode","kind":"Gdef","node":{".class":"TypeInfo","_promote":[],"abstract_attributes":[],"alt_promote":null,"bases":["transformers.convert_slow_tokenizer.SpmConverter"],"dataclass_transform_spec":null,"declared_metaclass":null,"defn":{".class":"ClassDef","fullname":"transformers.convert_slow_tokenizer.CamembertConverter","name":"CamembertConverter","type_vars":[]},"deletable_attributes":[],"deprecated":null,"flags":[],"fullname":"transformers.convert_slow_tokenizer.CamembertConverter","has_param_spec_type":false,"metaclass_type":null,"metadata":{},"module_name":"transformers.convert_slow_tokenizer","mro":["transformers.convert_slow_tokenizer.CamembertConverter","transformers.convert_slow_tokenizer.SpmConverter","transformers.convert_slow_tokenizer.Converter","builtins.object"],"names":{".class":"SymbolTable","post_processor":{".class":"SymbolTableNode","kind":"Mdef","node":{".class":"FuncDef","abstract_status":0,"arg_kinds":[0],"arg_names":["self"],"dataclass_transform_spec":null,"deprecated":null,"flags":[],"fullname":"transformers.convert_slow_tokenizer.CamembertConverter.post_processor","name":"post_processor","original_first_arg":"self","type":null}},"unk_id":{".class":"SymbolTableNode","kind":"Mdef","node":{".class":"FuncDef","abstract_status":0,"arg_kinds":[0,0],"arg_names":["self","proto"],"dataclass_transform_spec":null,"deprecated":null,"flags":[],"fullname":"transformers.convert_slow_tokenizer.CamembertConverter.unk_id","name":"unk_id","original_first_arg":"self","type":null}},"vocab":{".class":"SymbolTableNode","kind":"Mdef","node":{".class":"FuncDef","abstract_status":0,"arg_kinds":[0,0],"arg_names":["self","proto"],"dataclass_transform_spec":null,"deprecated":null,"flags":[],"fullname":"transformers.convert_slow_tokenizer.CamembertConverter.vocab","name":"vocab","original_first_arg":"self","type":null}}},"self_type":{".class":"TypeVarType","default":{".class":"AnyType","missing_import_name":null,"source_any":null,"type_of_any":4},"fullname":"transformers.convert_slow_tokenizer.CamembertConverter.Self","id":0,"name":"Self","namespace":"","upper_bound":"transformers.convert_slow_tokenizer.CamembertConverter","values":[],"variance":0},"slots":null,"tuple_type":null,"type_vars":[],"typeddict_type":null}},"Converter":{".class":"SymbolTableNode","kind":"Gdef","node":{".class":"TypeInfo","_promote":[],"abstract_attributes":[],"alt_promote":null,"bases":["builtins.object"],"dataclass_transform_spec":null,"declared_metaclass":null,"defn":{".class":"ClassDef","fullname":"transformers.convert_slow_tokenizer.Converter","name":"Converter","type_vars":[]},"deletable_attributes":[],"deprecated":null,"flags":[],"fullname":"transformers.convert_slow_tokenizer.Converter","has_param_spec_type":false,"metaclass_type":null,"metadata":{},"module_name":"transformers.convert_slow_tokenizer","mro":["transformers.convert_slow_tokenizer.Converter","builtins.object"],"names":{".class":"SymbolTable","__init__":{".class":"SymbolTableNode","kind":"Mdef","node":{".class":"FuncDef","abstract_status":0,"arg_kinds":[0,0],"arg_names":["self","original_tokenizer"],"dataclass_transform_spec":null,"deprecated":null,"flags":[],"fullname":"transformers.convert_slow_tokenizer.Converter.__init__","name":"__init__","original_first_arg":"self","type":null}},"converted":{".class":"SymbolTableNode","kind":"Mdef","node":{".class":"FuncDef","abstract_status":0,"arg_kinds":[0],"arg_names":["self"],"dataclass_transform_spec":null,"deprecated":null,"flags":["is_trivial_self"],"fullname":"transformers.convert_slow_tokenizer.Converter.converted","name":"converted","original_first_arg":"self","type":{".class":"CallableType","arg_kinds":[0],"arg_names":["self"],"arg_types":["transformers.convert_slow_tokenizer.Converter"],"fallback":"builtins.function","from_concatenate":false,"implicit":false,"imprecise_arg_kinds":false,"is_bound":false,"is_ellipsis_args":false,"name":"converted of Converter","ret_type":{".class":"AnyType","missing_import_name":"transformers.convert_slow_tokenizer.Tokenizer","source_any":null,"type_of_any":3},"type_guard":null,"type_is":null,"unpack_kwargs":false,"variables":[]}}},"original_tokenizer":{".class":"SymbolTableNode","implicit":true,"kind":"Mdef","node":{".class":"Var","flags":["is_ready","is_inferred"],"fullname":"transformers.convert_slow_tokenizer.Converter.original_tokenizer","name":"original_tokenizer","setter_type":null,"type":{".class":"AnyType","missing_import_name":null,"source_any":null,"type_of_any":1}}}},"self_type":{".class":"TypeVarType","default":{".class":"AnyType","missing_import_name":null,"source_any":null,"type_of_any":4},"fullname":"transformers.convert_slow_tokenizer.Converter.Self","id":0,"name":"Self","namespace":"","upper_bound":"transformers.convert_slow_tokenizer.Converter","values":[],"variance":0},"slots":null,"tuple_type":null,"type_vars":[],"typeddict_type":null}},"DebertaConverter":{".class":"SymbolTableNode","kind":"Gdef","node":{".class":"TypeInfo","_promote":[],"abstract_attributes":[],"alt_promote":null,"bases":["transformers.convert_slow_tokenizer.Converter"],"dataclass_transform_spec":null,"declared_metaclass":null,"defn":{".class":"ClassDef","fullname":"transformers.convert_slow_tokenizer.DebertaConverter","name":"DebertaConverter","type_vars":[]},"deletable_attributes":[],"deprecated":null,"flags":[],"fullname":"transformers.convert_slow_tokenizer.DebertaConverter","has_param_spec_type":false,"metaclass_type":null,"metadata":{},"module_name":"transformers.convert_slow_tokenizer","mro":["transformers.convert_slow_tokenizer.DebertaConverter","transformers.convert_slow_tokenizer.Converter","builtins.object"],"names":{".class":"SymbolTable","converted":{".class":"SymbolTableNode","kind":"Mdef","node":{".class":"FuncDef","abstract_status":0,"arg_kinds":[0],"arg_names":["self"],"dataclass_transform_spec":null,"deprecated":null,"flags":["is_trivial_self"],"fullname":"transformers.convert_slow_tokenizer.DebertaConverter.converted","name":"converted","original_first_arg":"self","type":{".class":"CallableType","arg_kinds":[0],"arg_names":["self"],"arg_types":["transformers.convert_slow_tokenizer.DebertaConverter"],"fallback":"builtins.function","from_concatenate":false,"implicit":false,"imprecise_arg_kinds":false,"is_bound":false,"is_ellipsis_args":false,"name":"converted of DebertaConverter","ret_type":{".class":"AnyType","missing_import_name":"transformers.convert_slow_tokenizer.Tokenizer","source_any":null,"type_of_any":3},"type_guard":null,"type_is":null,"unpack_kwargs":false,"variables":[]}}}},"self_type":{".class":"TypeVarType","default":{".class":"AnyType","missing_import_name":null,"source_any":null,"type_of_any":4},"fullname":"transformers.convert_slow_tokenizer.DebertaConverter.Self","id":0,"name":"Self","namespace":"","upper_bound":"transformers.convert_slow_tokenizer.DebertaConverter","values":[],"variance":0},"slots":null,"tuple_type":null,"type_vars":[],"typeddict_type":null}},"DebertaV2Converter":{".class":"SymbolTableNode","kind":"Gdef","node":{".class":"TypeInfo","_promote":[],"abstract_attributes":[],"alt_promote":null,"bases":["transformers.convert_slow_tokenizer.SpmConverter"],"dataclass_transform_spec":null,"declared_metaclass":null,"defn":{".class":"ClassDef","fullname":"transformers.convert_slow_tokenizer.DebertaV2Converter","name":"DebertaV2Converter","type_vars":[]},"deletable_attributes":[],"deprecated":null,"flags":[],"fullname":"transformers.convert_slow_tokenizer.DebertaV2Converter","has_param_spec_type":false,"metaclass_type":null,"metadata":{},"module_name":"transformers.convert_slow_tokenizer","mro":["transformers.convert_slow_tokenizer.DebertaV2Converter","transformers.convert_slow_tokenizer.SpmConverter","transformers.convert_slow_tokenizer.Converter","builtins.object"],"names":{".class":"SymbolTable","normalizer":{".class":"SymbolTableNode","kind":"Mdef","node":{".class":"FuncDef","abstract_status":0,"arg_kinds":[0,0],"arg_names":["self","proto"],"dataclass_transform_spec":null,"deprecated":null,"flags":[],"fullname":"transformers.convert_slow_tokenizer.DebertaV2Converter.normalizer","name":"normalizer","original_first_arg":"self","type":null}},"post_processor":{".class":"SymbolTableNode","kind":"Mdef","node":{".class":"FuncDef","abstract_status":0,"arg_kinds":[0],"arg_names":["self"],"dataclass_transform_spec":null,"deprecated":null,"flags":[],"fullname":"transformers.convert_slow_tokenizer.DebertaV2Converter.post_processor","name":"post_processor","original_first_arg":"self","type":null}},"pre_tokenizer":{".class":"SymbolTableNode","kind":"Mdef","node":{".class":"FuncDef","abstract_status":0,"arg_kinds":[0,0,0],"arg_names":["self","replacement","add_prefix_space"],"dataclass_transform_spec":null,"deprecated":null,"flags":[],"fullname":"transformers.convert_slow_tokenizer.DebertaV2Converter.pre_tokenizer","name":"pre_tokenizer","original_first_arg":"self","type":null}}},"self_type":{".class":"TypeVarType","default":{".class":"AnyType","missing_import_name":null,"source_any":null,"type_of_any":4},"fullname":"transformers.convert_slow_tokenizer.DebertaV2Converter.Self","id":0,"name":"Self","namespace":"","upper_bound":"transformers.convert_slow_tokenizer.DebertaV2Converter","values":[],"variance":0},"slots":null,"tuple_type":null,"type_vars":[],"typeddict_type":null}},"FunnelConverter":{".class":"SymbolTableNode","kind":"Gdef","node":{".class":"TypeInfo","_promote":[],"abstract_attributes":[],"alt_promote":null,"bases":["transformers.convert_slow_tokenizer.Converter"],"dataclass_transform_spec":null,"declared_metaclass":null,"defn":{".class":"ClassDef","fullname":"transformers.convert_slow_tokenizer.FunnelConverter","name":"FunnelConverter","type_vars":[]},"deletable_attributes":[],"deprecated":null,"flags":[],"fullname":"transformers.convert_slow_tokenizer.FunnelConverter","has_param_spec_type":false,"metaclass_type":null,"metadata":{},"module_name":"transformers.convert_slow_tokenizer","mro":["transformers.convert_slow_tokenizer.FunnelConverter","transformers.convert_slow_tokenizer.Converter","builtins.object"],"names":{".class":"SymbolTable","converted":{".class":"SymbolTableNode","kind":"Mdef","node":{".class":"FuncDef","abstract_status":0,"arg_kinds":[0],"arg_names":["self"],"dataclass_transform_spec":null,"deprecated":null,"flags":["is_trivial_self"],"fullname":"transformers.convert_slow_tokenizer.FunnelConverter.converted","name":"converted","original_first_arg":"self","type":{".class":"CallableType","arg_kinds":[0],"arg_names":["self"],"arg_types":["transformers.convert_slow_tokenizer.FunnelConverter"],"fallback":"builtins.function","from_concatenate":false,"implicit":false,"imprecise_arg_kinds":false,"is_bound":false,"is_ellipsis_args":false,"name":"converted of FunnelConverter","ret_type":{".class":"AnyType","missing_import_name":"transformers.convert_slow_tokenizer.Tokenizer","source_any":null,"type_of_any":3},"type_guard":null,"type_is":null,"unpack_kwargs":false,"variables":[]}}}},"self_type":{".class":"TypeVarType","default":{".class":"AnyType","missing_import_name":null,"source_any":null,"type_of_any":4},"fullname":"transformers.convert_slow_tokenizer.FunnelConverter.Self","id":0,"name":"Self","namespace":"","upper_bound":"transformers.convert_slow_tokenizer.FunnelConverter","values":[],"variance":0},"slots":null,"tuple_type":null,"type_vars":[],"typeddict_type":null}},"GPT2Converter":{".class":"SymbolTableNode","kind":"Gdef","node":{".class":"TypeInfo","_promote":[],"abstract_attributes":[],"alt_promote":null,"bases":["transformers.convert_slow_tokenizer.Converter"],"dataclass_transform_spec":null,"declared_metaclass":null,"defn":{".class":"ClassDef","fullname":"transformers.convert_slow_tokenizer.GPT2Converter","name":"GPT2Converter","type_vars":[]},"deletable_attributes":[],"deprecated":null,"flags":[],"fullname":"transformers.convert_slow_tokenizer.GPT2Converter","has_param_spec_type":false,"metaclass_type":null,"metadata":{},"module_name":"transformers.convert_slow_tokenizer","mro":["transformers.convert_slow_tokenizer.GPT2Converter","transformers.convert_slow_tokenizer.Converter","builtins.object"],"names":{".class":"SymbolTable","converted":{".class":"SymbolTableNode","kind":"Mdef","node":{".class":"FuncDef","abstract_status":0,"arg_kinds":[0,1,1],"arg_names":["self","vocab","merges"],"dataclass_transform_spec":null,"deprecated":null,"flags":["is_trivial_self"],"fullname":"transformers.convert_slow_tokenizer.GPT2Converter.converted","name":"converted","original_first_arg":"self","type":{".class":"CallableType","arg_kinds":[0,1,1],"arg_names":["self","vocab","merges"],"arg_types":["transformers.convert_slow_tokenizer.GPT2Converter",{".class":"UnionType","items":[{".class":"Instance","args":["builtins.str","builtins.int"],"extra_attrs":null,"type_ref":"builtins.dict"},{".class":"NoneType"}],"uses_pep604_syntax":false},{".class":"UnionType","items":[{".class":"Instance","args":[{".class":"TupleType","implicit":false,"items":["builtins.str","builtins.str"],"partial_fallback":{".class":"Instance","args":[{".class":"AnyType","missing_import_name":null,"source_any":null,"type_of_any":6}],"extra_attrs":null,"type_ref":"builtins.tuple"}}],"extra_attrs":null,"type_ref":"builtins.list"},{".class":"NoneType"}],"uses_pep604_syntax":false}],"fallback":"builtins.function","from_concatenate":false,"implicit":false,"imprecise_arg_kinds":false,"is_bound":false,"is_ellipsis_args":false,"name":"converted of GPT2Converter","ret_type":{".class":"AnyType","missing_import_name":"transformers.convert_slow_tokenizer.Tokenizer","source_any":null,"type_of_any":3},"type_guard":null,"type_is":null,"unpack_kwargs":false,"variables":[]}}}},"self_type":{".class":"TypeVarType","default":{".class":"AnyType","missing_import_name":null,"source_any":null,"type_of_any":4},"fullname":"transformers.convert_slow_tokenizer.GPT2Converter.Self","id":0,"name":"Self","namespace":"","upper_bound":"transformers.convert_slow_tokenizer.GPT2Converter","values":[],"variance":0},"slots":null,"tuple_type":null,"type_vars":[],"typeddict_type":null}},"GemmaConverter":{".class":"SymbolTableNode","kind":"Gdef","node":{".class":"TypeInfo","_promote":[],"abstract_attributes":[],"alt_promote":null,"bases":["transformers.convert_slow_tokenizer.SpmConverter"],"dataclass_transform_spec":null,"declared_metaclass":null,"defn":{".class":"ClassDef","fullname":"transformers.convert_slow_tokenizer.GemmaConverter","name":"GemmaConverter","type_vars":[]},"deletable_attributes":[],"deprecated":null,"flags":[],"fullname":"transformers.convert_slow_tokenizer.GemmaConverter","has_param_spec_type":false,"metaclass_type":null,"metadata":{},"module_name":"transformers.convert_slow_tokenizer","mro":["transformers.convert_slow_tokenizer.GemmaConverter","transformers.convert_slow_tokenizer.SpmConverter","transformers.convert_slow_tokenizer.Converter","builtins.object"],"names":{".class":"SymbolTable","SpmExtractor":{".class":"SymbolTableNode","kind":"Mdef","node":{".class":"Var","flags":["is_initialized_in_class","is_ready","is_inferred","has_explicit_value"],"fullname":"transformers.convert_slow_tokenizer.GemmaConverter.SpmExtractor","name":"SpmExtractor","setter_type":null,"type":{".class":"CallableType","arg_kinds":[0],"arg_names":["model"],"arg_types":["builtins.str"],"fallback":"builtins.type","from_concatenate":false,"implicit":false,"imprecise_arg_kinds":false,"is_bound":true,"is_ellipsis_args":false,"name":null,"ret_type":"transformers.convert_slow_tokenizer.GemmaSentencePieceExtractor","type_guard":null,"type_is":null,"unpack_kwargs":false,"variables":[]}}},"decoder":{".class":"SymbolTableNode","kind":"Mdef","node":{".class":"FuncDef","abstract_status":0,"arg_kinds":[0,0,0],"arg_names":["self","replacement","add_prefix_space"],"dataclass_transform_spec":null,"deprecated":null,"flags":[],"fullname":"transformers.convert_slow_tokenizer.GemmaConverter.decoder","name":"decoder","original_first_arg":"self","type":null}},"handle_byte_fallback":{".class":"SymbolTableNode","kind":"Mdef","node":{".class":"Var","flags":["is_initialized_in_class","is_ready","is_inferred","has_explicit_value"],"fullname":"transformers.convert_slow_tokenizer.GemmaConverter.handle_byte_fallback","name":"handle_byte_fallback","setter_type":null,"type":"builtins.bool"}},"normalizer":{".class":"SymbolTableNode","kind":"Mdef","node":{".class":"FuncDef","abstract_status":0,"arg_kinds":[0,0],"arg_names":["self","proto"],"dataclass_transform_spec":null,"deprecated":null,"flags":[],"fullname":"transformers.convert_slow_tokenizer.GemmaConverter.normalizer","name":"normalizer","original_first_arg":"self","type":null}},"pre_tokenizer":{".class":"SymbolTableNode","kind":"Mdef","node":{".class":"FuncDef","abstract_status":0,"arg_kinds":[0,0,0],"arg_names":["self","replacement","add_prefix_space"],"dataclass_transform_spec":null,"deprecated":null,"flags":[],"fullname":"transformers.convert_slow_tokenizer.GemmaConverter.pre_tokenizer","name":"pre_tokenizer","original_first_arg":"self","type":null}},"special_tokens":{".class":"SymbolTableNode","kind":"Mdef","node":{".class":"Var","flags":["is_initialized_in_class","is_ready","is_inferred","has_explicit_value"],"fullname":"transformers.convert_slow_tokenizer.GemmaConverter.special_tokens","name":"special_tokens","setter_type":null,"type":{".class":"Instance","args":["builtins.str"],"extra_attrs":null,"type_ref":"builtins.set"}}},"unk_id":{".class":"SymbolTableNode","kind":"Mdef","node":{".class":"FuncDef","abstract_status":0,"arg_kinds":[0,0],"arg_names":["self","proto"],"dataclass_transform_spec":null,"deprecated":null,"flags":[],"fullname":"transformers.convert_slow_tokenizer.GemmaConverter.unk_id","name":"unk_id","original_first_arg":"self","type":null}},"vocab":{".class":"SymbolTableNode","kind":"Mdef","node":{".class":"FuncDef","abstract_status":0,"arg_kinds":[0,0],"arg_names":["self","proto"],"dataclass_transform_spec":null,"deprecated":null,"flags":[],"fullname":"transformers.convert_slow_tokenizer.GemmaConverter.vocab","name":"vocab","original_first_arg":"self","type":null}}},"self_type":{".class":"TypeVarType","default":{".class":"AnyType","missing_import_name":null,"source_any":null,"type_of_any":4},"fullname":"transformers.convert_slow_tokenizer.GemmaConverter.Self","id":0,"name":"Self","namespace":"","upper_bound":"transformers.convert_slow_tokenizer.GemmaConverter","values":[],"variance":0},"slots":null,"tuple_type":null,"type_vars":[],"typeddict_type":null}},"GemmaSentencePieceExtractor":{".class":"SymbolTableNode","kind":"Gdef","node":{".class":"TypeInfo","_promote":[],"abstract_attributes":[],"alt_promote":null,"bases":["transformers.convert_slow_tokenizer.SentencePieceExtractor"],"dataclass_transform_spec":null,"declared_metaclass":null,"defn":{".class":"ClassDef","fullname":"transformers.convert_slow_tokenizer.GemmaSentencePieceExtractor","name":"GemmaSentencePieceExtractor","type_vars":[]},"deletable_attributes":[],"deprecated":null,"flags":[],"fullname":"transformers.convert_slow_tokenizer.GemmaSentencePieceExtractor","has_param_spec_type":false,"metaclass_type":null,"metadata":{},"module_name":"transformers.convert_slow_tokenizer","mro":["transformers.convert_slow_tokenizer.GemmaSentencePieceExtractor","transformers.convert_slow_tokenizer.SentencePieceExtractor","builtins.object"],"names":{".class":"SymbolTable","extract":{".class":"SymbolTableNode","kind":"Mdef","node":{".class":"FuncDef","abstract_status":0,"arg_kinds":[0,1],"arg_names":["self","vocab_scores"],"dataclass_transform_spec":null,"deprecated":null,"flags":["is_trivial_self"],"fullname":"transformers.convert_slow_tokenizer.GemmaSentencePieceExtractor.extract","name":"extract","original_first_arg":"self","type":{".class":"CallableType","arg_kinds":[0,1],"arg_names":["self","vocab_scores"],"arg_types":["transformers.convert_slow_tokenizer.GemmaSentencePieceExtractor",{".class":"AnyType","missing_import_name":null,"source_any":null,"type_of_any":1}],"fallback":"builtins.function","from_concatenate":false,"implicit":false,"imprecise_arg_kinds":false,"is_bound":false,"is_ellipsis_args":false,"name":"extract of GemmaSentencePieceExtractor","ret_type":{".class":"TupleType","implicit":false,"items":[{".class":"Instance","args":["builtins.str","builtins.int"],"extra_attrs":null,"type_ref":"builtins.dict"},{".class":"Instance","args":[{".class":"Instance","args":[{".class":"AnyType","missing_import_name":null,"source_any":null,"type_of_any":4}],"extra_attrs":null,"type_ref":"builtins.tuple"}],"extra_attrs":null,"type_ref":"builtins.list"}],"partial_fallback":{".class":"Instance","args":[{".class":"AnyType","missing_import_name":null,"source_any":null,"type_of_any":6}],"extra_attrs":null,"type_ref":"builtins.tuple"}},"type_guard":null,"type_is":null,"unpack_kwargs":false,"variables":[]}}}},"self_type":{".class":"TypeVarType","default":{".class":"AnyType","missing_import_name":null,"source_any":null,"type_of_any":4},"fullname":"transformers.convert_slow_tokenizer.GemmaSentencePieceExtractor.Self","id":0,"name":"Self","namespace":"","upper_bound":"transformers.convert_slow_tokenizer.GemmaSentencePieceExtractor","values":[],"variance":0},"slots":null,"tuple_type":null,"type_vars":[],"typeddict_type":null}},"HeliumConverter":{".class":"SymbolTableNode","kind":"Gdef","node":{".class":"TypeInfo","_promote":[],"abstract_attributes":[],"alt_promote":null,"bases":["transformers.convert_slow_tokenizer.SpmConverter"],"dataclass_transform_spec":null,"declared_metaclass":null,"defn":{".class":"ClassDef","fullname":"transformers.convert_slow_tokenizer.HeliumConverter","name":"HeliumConverter","type_vars":[]},"deletable_attributes":[],"deprecated":null,"flags":[],"fullname":"transformers.convert_slow_tokenizer.HeliumConverter","has_param_spec_type":false,"metaclass_type":null,"metadata":{},"module_name":"transformers.convert_slow_tokenizer","mro":["transformers.convert_slow_tokenizer.HeliumConverter","transformers.convert_slow_tokenizer.SpmConverter","transformers.convert_slow_tokenizer.Converter","builtins.object"],"names":{".class":"SymbolTable","__init__":{".class":"SymbolTableNode","kind":"Mdef","node":{".class":"FuncDef","abstract_status":0,"arg_kinds":[0,1,4],"arg_names":["self","vocab_file","kwargs"],"dataclass_transform_spec":null,"deprecated":null,"flags":[],"fullname":"transformers.convert_slow_tokenizer.HeliumConverter.__init__","name":"__init__","original_first_arg":"self","type":null}},"decoder":{".class":"SymbolTableNode","kind":"Mdef","node":{".class":"FuncDef","abstract_status":0,"arg_kinds":[0,0,0],"arg_names":["self","replacement","add_prefix_space"],"dataclass_transform_spec":null,"deprecated":null,"flags":[],"fullname":"transformers.convert_slow_tokenizer.HeliumConverter.decoder","name":"decoder","original_first_arg":"self","type":null}},"handle_byte_fallback":{".class":"SymbolTableNode","kind":"Mdef","node":{".class":"Var","flags":["is_initialized_in_class","is_ready","is_inferred","has_explicit_value"],"fullname":"transformers.convert_slow_tokenizer.HeliumConverter.handle_byte_fallback","name":"handle_byte_fallback","setter_type":null,"type":"builtins.bool"}},"normalizer":{".class":"SymbolTableNode","kind":"Mdef","node":{".class":"FuncDef","abstract_status":0,"arg_kinds":[0,0],"arg_names":["self","proto"],"dataclass_transform_spec":null,"deprecated":null,"flags":[],"fullname":"transformers.convert_slow_tokenizer.HeliumConverter.normalizer","name":"normalizer","original_first_arg":"self","type":null}},"post_processor":{".class":"SymbolTableNode","kind":"Mdef","node":{".class":"FuncDef","abstract_status":0,"arg_kinds":[0],"arg_names":["self"],"dataclass_transform_spec":null,"deprecated":null,"flags":[],"fullname":"transformers.convert_slow_tokenizer.HeliumConverter.post_processor","name":"post_processor","original_first_arg":"self","type":null}},"pre_tokenizer":{".class":"SymbolTableNode","kind":"Mdef","node":{".class":"FuncDef","abstract_status":0,"arg_kinds":[0,0,0],"arg_names":["self","replacement","add_prefix_space"],"dataclass_transform_spec":null,"deprecated":null,"flags":[],"fullname":"transformers.convert_slow_tokenizer.HeliumConverter.pre_tokenizer","name":"pre_tokenizer","original_first_arg":"self","type":null}},"tokenizer":{".class":"SymbolTableNode","kind":"Mdef","node":{".class":"FuncDef","abstract_status":0,"arg_kinds":[0,0],"arg_names":["self","proto"],"dataclass_transform_spec":null,"deprecated":null,"flags":[],"fullname":"transformers.convert_slow_tokenizer.HeliumConverter.tokenizer","name":"tokenizer","original_first_arg":"self","type":null}},"unk_id":{".class":"SymbolTableNode","kind":"Mdef","node":{".class":"FuncDef","abstract_status":0,"arg_kinds":[0,0],"arg_names":["self","proto"],"dataclass_transform_spec":null,"deprecated":null,"flags":[],"fullname":"transformers.convert_slow_tokenizer.HeliumConverter.unk_id","name":"unk_id","original_first_arg":"self","type":null}},"vocab":{".class":"SymbolTableNode","kind":"Mdef","node":{".class":"FuncDef","abstract_status":0,"arg_kinds":[0,0],"arg_names":["self","proto"],"dataclass_transform_spec":null,"deprecated":null,"flags":[],"fullname":"transformers.convert_slow_tokenizer.HeliumConverter.vocab","name":"vocab","original_first_arg":"self","type":null}}},"self_type":{".class":"TypeVarType","default":{".class":"AnyType","missing_import_name":null,"source_any":null,"type_of_any":4},"fullname":"transformers.convert_slow_tokenizer.HeliumConverter.Self","id":0,"name":"Self","namespace":"","upper_bound":"transformers.convert_slow_tokenizer.HeliumConverter","values":[],"variance":0},"slots":null,"tuple_type":null,"type_vars":[],"typeddict_type":null}},"HerbertConverter":{".class":"SymbolTableNode","kind":"Gdef","node":{".class":"TypeInfo","_promote":[],"abstract_attributes":[],"alt_promote":null,"bases":["transformers.convert_slow_tokenizer.Converter"],"dataclass_transform_spec":null,"declared_metaclass":null,"defn":{".class":"ClassDef","fullname":"transformers.convert_slow_tokenizer.HerbertConverter","name":"HerbertConverter","type_vars":[]},"deletable_attributes":[],"deprecated":null,"flags":[],"fullname":"transformers.convert_slow_tokenizer.HerbertConverter","has_param_spec_type":false,"metaclass_type":null,"metadata":{},"module_name":"transformers.convert_slow_tokenizer","mro":["transformers.convert_slow_tokenizer.HerbertConverter","transformers.convert_slow_tokenizer.Converter","builtins.object"],"names":{".class":"SymbolTable","converted":{".class":"SymbolTableNode","kind":"Mdef","node":{".class":"FuncDef","abstract_status":0,"arg_kinds":[0],"arg_names":["self"],"dataclass_transform_spec":null,"deprecated":null,"flags":["is_trivial_self"],"fullname":"transformers.convert_slow_tokenizer.HerbertConverter.converted","name":"converted","original_first_arg":"self","type":{".class":"CallableType","arg_kinds":[0],"arg_names":["self"],"arg_types":["transformers.convert_slow_tokenizer.HerbertConverter"],"fallback":"builtins.function","from_concatenate":false,"implicit":false,"imprecise_arg_kinds":false,"is_bound":false,"is_ellipsis_args":false,"name":"converted of HerbertConverter","ret_type":{".class":"AnyType","missing_import_name":"transformers.convert_slow_tokenizer.Tokenizer","source_any":null,"type_of_any":3},"type_guard":null,"type_is":null,"unpack_kwargs":false,"variables":[]}}}},"self_type":{".class":"TypeVarType","default":{".class":"AnyType","missing_import_name":null,"source_any":null,"type_of_any":4},"fullname":"transformers.convert_slow_tokenizer.HerbertConverter.Self","id":0,"name":"Self","namespace":"","upper_bound":"transformers.convert_slow_tokenizer.HerbertConverter","values":[],"variance":0},"slots":null,"tuple_type":null,"type_vars":[],"typeddict_type":null}},"LayoutLMv2Converter":{".class":"SymbolTableNode","kind":"Gdef","node":{".class":"TypeInfo","_promote":[],"abstract_attributes":[],"alt_promote":null,"bases":["transformers.convert_slow_tokenizer.Converter"],"dataclass_transform_spec":null,"declared_metaclass":null,"defn":{".class":"ClassDef","fullname":"transformers.convert_slow_tokenizer.LayoutLMv2Converter","name":"LayoutLMv2Converter","type_vars":[]},"deletable_attributes":[],"deprecated":null,"flags":[],"fullname":"transformers.convert_slow_tokenizer.LayoutLMv2Converter","has_param_spec_type":false,"metaclass_type":null,"metadata":{},"module_name":"transformers.convert_slow_tokenizer","mro":["transformers.convert_slow_tokenizer.LayoutLMv2Converter","transformers.convert_slow_tokenizer.Converter","builtins.object"],"names":{".class":"SymbolTable","converted":{".class":"SymbolTableNode","kind":"Mdef","node":{".class":"FuncDef","abstract_status":0,"arg_kinds":[0],"arg_names":["self"],"dataclass_transform_spec":null,"deprecated":null,"flags":["is_trivial_self"],"fullname":"transformers.convert_slow_tokenizer.LayoutLMv2Converter.converted","name":"converted","original_first_arg":"self","type":{".class":"CallableType","arg_kinds":[0],"arg_names":["self"],"arg_types":["transformers.convert_slow_tokenizer.LayoutLMv2Converter"],"fallback":"builtins.function","from_concatenate":false,"implicit":false,"imprecise_arg_kinds":false,"is_bound":false,"is_ellipsis_args":false,"name":"converted of LayoutLMv2Converter","ret_type":{".class":"AnyType","missing_import_name":"transformers.convert_slow_tokenizer.Tokenizer","source_any":null,"type_of_any":3},"type_guard":null,"type_is":null,"unpack_kwargs":false,"variables":[]}}}},"self_type":{".class":"TypeVarType","default":{".class":"AnyType","missing_import_name":null,"source_any":null,"type_of_any":4},"fullname":"transformers.convert_slow_tokenizer.LayoutLMv2Converter.Self","id":0,"name":"Self","namespace":"","upper_bound":"transformers.convert_slow_tokenizer.LayoutLMv2Converter","values":[],"variance":0},"slots":null,"tuple_type":null,"type_vars":[],"typeddict_type":null}},"LlamaConverter":{".class":"SymbolTableNode","kind":"Gdef","node":{".class":"TypeInfo","_promote":[],"abstract_attributes":[],"alt_promote":null,"bases":["transformers.convert_slow_tokenizer.SpmConverter"],"dataclass_transform_spec":null,"declared_metaclass":null,"defn":{".class":"ClassDef","fullname":"transformers.convert_slow_tokenizer.LlamaConverter","name":"LlamaConverter","type_vars":[]},"deletable_attributes":[],"deprecated":null,"flags":[],"fullname":"transformers.convert_slow_tokenizer.LlamaConverter","has_param_spec_type":false,"metaclass_type":null,"metadata":{},"module_name":"transformers.convert_slow_tokenizer","mro":["transformers.convert_slow_tokenizer.LlamaConverter","transformers.convert_slow_tokenizer.SpmConverter","transformers.convert_slow_tokenizer.Converter","builtins.object"],"names":{".class":"SymbolTable","decoder":{".class":"SymbolTableNode","kind":"Mdef","node":{".class":"FuncDef","abstract_status":0,"arg_kinds":[0,0,0],"arg_names":["self","replacement","add_prefix_space"],"dataclass_transform_spec":null,"deprecated":null,"flags":[],"fullname":"transformers.convert_slow_tokenizer.LlamaConverter.decoder","name":"decoder","original_first_arg":"self","type":null}},"handle_byte_fallback":{".class":"SymbolTableNode","kind":"Mdef","node":{".class":"Var","flags":["is_initialized_in_class","is_ready","is_inferred","has_explicit_value"],"fullname":"transformers.convert_slow_tokenizer.LlamaConverter.handle_byte_fallback","name":"handle_byte_fallback","setter_type":null,"type":"builtins.bool"}},"normalizer":{".class":"SymbolTableNode","kind":"Mdef","node":{".class":"FuncDef","abstract_status":0,"arg_kinds":[0,0],"arg_names":["self","proto"],"dataclass_transform_spec":null,"deprecated":null,"flags":[],"fullname":"transformers.convert_slow_tokenizer.LlamaConverter.normalizer","name":"normalizer","original_first_arg":"self","type":null}},"post_processor":{".class":"SymbolTableNode","kind":"Mdef","node":{".class":"FuncDef","abstract_status":0,"arg_kinds":[0],"arg_names":["self"],"dataclass_transform_spec":null,"deprecated":null,"flags":[],"fullname":"transformers.convert_slow_tokenizer.LlamaConverter.post_processor","name":"post_processor","original_first_arg":"self","type":null}},"pre_tokenizer":{".class":"SymbolTableNode","kind":"Mdef","node":{".class":"FuncDef","abstract_status":0,"arg_kinds":[0,0,0],"arg_names":["self","replacement","add_prefix_space"],"dataclass_transform_spec":null,"deprecated":null,"flags":[],"fullname":"transformers.convert_slow_tokenizer.LlamaConverter.pre_tokenizer","name":"pre_tokenizer","original_first_arg":"self","type":null}},"unk_id":{".class":"SymbolTableNode","kind":"Mdef","node":{".class":"FuncDef","abstract_status":0,"arg_kinds":[0,0],"arg_names":["self","proto"],"dataclass_transform_spec":null,"deprecated":null,"flags":[],"fullname":"transformers.convert_slow_tokenizer.LlamaConverter.unk_id","name":"unk_id","original_first_arg":"self","type":null}},"vocab":{".class":"SymbolTableNode","kind":"Mdef","node":{".class":"FuncDef","abstract_status":0,"arg_kinds":[0,0],"arg_names":["self","proto"],"dataclass_transform_spec":null,"deprecated":null,"flags":[],"fullname":"transformers.convert_slow_tokenizer.LlamaConverter.vocab","name":"vocab","original_first_arg":"self","type":null}}},"self_type":{".class":"TypeVarType","default":{".class":"AnyType","missing_import_name":null,"source_any":null,"type_of_any":4},"fullname":"transformers.convert_slow_tokenizer.LlamaConverter.Self","id":0,"name":"Self","namespace":"","upper_bound":"transformers.convert_slow_tokenizer.LlamaConverter","values":[],"variance":0},"slots":null,"tuple_type":null,"type_vars":[],"typeddict_type":null}},"MBart50Converter":{".class":"SymbolTableNode","kind":"Gdef","node":{".class":"TypeInfo","_promote":[],"abstract_attributes":[],"alt_promote":null,"bases":["transformers.convert_slow_tokenizer.SpmConverter"],"dataclass_transform_spec":null,"declared_metaclass":null,"defn":{".class":"ClassDef","fullname":"transformers.convert_slow_tokenizer.MBart50Converter","name":"MBart50Converter","type_vars":[]},"deletable_attributes":[],"deprecated":null,"flags":[],"fullname":"transformers.convert_slow_tokenizer.MBart50Converter","has_param_spec_type":false,"metaclass_type":null,"metadata":{},"module_name":"transformers.convert_slow_tokenizer","mro":["transformers.convert_slow_tokenizer.MBart50Converter","transformers.convert_slow_tokenizer.SpmConverter","transformers.convert_slow_tokenizer.Converter","builtins.object"],"names":{".class":"SymbolTable","post_processor":{".class":"SymbolTableNode","kind":"Mdef","node":{".class":"FuncDef","abstract_status":0,"arg_kinds":[0],"arg_names":["self"],"dataclass_transform_spec":null,"deprecated":null,"flags":[],"fullname":"transformers.convert_slow_tokenizer.MBart50Converter.post_processor","name":"post_processor","original_first_arg":"self","type":null}},"unk_id":{".class":"SymbolTableNode","kind":"Mdef","node":{".class":"FuncDef","abstract_status":0,"arg_kinds":[0,0],"arg_names":["self","proto"],"dataclass_transform_spec":null,"deprecated":null,"flags":[],"fullname":"transformers.convert_slow_tokenizer.MBart50Converter.unk_id","name":"unk_id","original_first_arg":"self","type":null}},"vocab":{".class":"SymbolTableNode","kind":"Mdef","node":{".class":"FuncDef","abstract_status":0,"arg_kinds":[0,0],"arg_names":["self","proto"],"dataclass_transform_spec":null,"deprecated":null,"flags":[],"fullname":"transformers.convert_slow_tokenizer.MBart50Converter.vocab","name":"vocab","original_first_arg":"self","type":null}}},"self_type":{".class":"TypeVarType","default":{".class":"AnyType","missing_import_name":null,"source_any":null,"type_of_any":4},"fullname":"transformers.convert_slow_tokenizer.MBart50Converter.Self","id":0,"name":"Self","namespace":"","upper_bound":"transformers.convert_slow_tokenizer.MBart50Converter","values":[],"variance":0},"slots":null,"tuple_type":null,"type_vars":[],"typeddict_type":null}},"MBartConverter":{".class":"SymbolTableNode","kind":"Gdef","node":{".class":"TypeInfo","_promote":[],"abstract_attributes":[],"alt_promote":null,"bases":["transformers.convert_slow_tokenizer.SpmConverter"],"dataclass_transform_spec":null,"declared_metaclass":null,"defn":{".class":"ClassDef","fullname":"transformers.convert_slow_tokenizer.MBartConverter","name":"MBartConverter","type_vars":[]},"deletable_attributes":[],"deprecated":null,"flags":[],"fullname":"transformers.convert_slow_tokenizer.MBartConverter","has_param_spec_type":false,"metaclass_type":null,"metadata":{},"module_name":"transformers.convert_slow_tokenizer","mro":["transformers.convert_slow_tokenizer.MBartConverter","transformers.convert_slow_tokenizer.SpmConverter","transformers.convert_slow_tokenizer.Converter","builtins.object"],"names":{".class":"SymbolTable","post_processor":{".class":"SymbolTableNode","kind":"Mdef","node":{".class":"FuncDef","abstract_status":0,"arg_kinds":[0],"arg_names":["self"],"dataclass_transform_spec":null,"deprecated":null,"flags":[],"fullname":"transformers.convert_slow_tokenizer.MBartConverter.post_processor","name":"post_processor","original_first_arg":"self","type":null}},"unk_id":{".class":"SymbolTableNode","kind":"Mdef","node":{".class":"FuncDef","abstract_status":0,"arg_kinds":[0,0],"arg_names":["self","proto"],"dataclass_transform_spec":null,"deprecated":null,"flags":[],"fullname":"transformers.convert_slow_tokenizer.MBartConverter.unk_id","name":"unk_id","original_first_arg":"self","type":null}},"vocab":{".class":"SymbolTableNode","kind":"Mdef","node":{".class":"FuncDef","abstract_status":0,"arg_kinds":[0,0],"arg_names":["self","proto"],"dataclass_transform_spec":null,"deprecated":null,"flags":[],"fullname":"transformers.convert_slow_tokenizer.MBartConverter.vocab","name":"vocab","original_first_arg":"self","type":null}}},"self_type":{".class":"TypeVarType","default":{".class":"AnyType","missing_import_name":null,"source_any":null,"type_of_any":4},"fullname":"transformers.convert_slow_tokenizer.MBartConverter.Self","id":0,"name":"Self","namespace":"","upper_bound":"transformers.convert_slow_tokenizer.MBartConverter","values":[],"variance":0},"slots":null,"tuple_type":null,"type_vars":[],"typeddict_type":null}},"MPNetConverter":{".class":"SymbolTableNode","kind":"Gdef","node":{".class":"TypeInfo","_promote":[],"abstract_attributes":[],"alt_promote":null,"bases":["transformers.convert_slow_tokenizer.Converter"],"dataclass_transform_spec":null,"declared_metaclass":null,"defn":{".class":"ClassDef","fullname":"transformers.convert_slow_tokenizer.MPNetConverter","name":"MPNetConverter","type_vars":[]},"deletable_attributes":[],"deprecated":null,"flags":[],"fullname":"transformers.convert_slow_tokenizer.MPNetConverter","has_param_spec_type":false,"metaclass_type":null,"metadata":{},"module_name":"transformers.convert_slow_tokenizer","mro":["transformers.convert_slow_tokenizer.MPNetConverter","transformers.convert_slow_tokenizer.Converter","builtins.object"],"names":{".class":"SymbolTable","converted":{".class":"SymbolTableNode","kind":"Mdef","node":{".class":"FuncDef","abstract_status":0,"arg_kinds":[0],"arg_names":["self"],"dataclass_transform_spec":null,"deprecated":null,"flags":["is_trivial_self"],"fullname":"transformers.convert_slow_tokenizer.MPNetConverter.converted","name":"converted","original_first_arg":"self","type":{".class":"CallableType","arg_kinds":[0],"arg_names":["self"],"arg_types":["transformers.convert_slow_tokenizer.MPNetConverter"],"fallback":"builtins.function","from_concatenate":false,"implicit":false,"imprecise_arg_kinds":false,"is_bound":false,"is_ellipsis_args":false,"name":"converted of MPNetConverter","ret_type":{".class":"AnyType","missing_import_name":"transformers.convert_slow_tokenizer.Tokenizer","source_any":null,"type_of_any":3},"type_guard":null,"type_is":null,"unpack_kwargs":false,"variables":[]}}}},"self_type":{".class":"TypeVarType","default":{".class":"AnyType","missing_import_name":null,"source_any":null,"type_of_any":4},"fullname":"transformers.convert_slow_tokenizer.MPNetConverter.Self","id":0,"name":"Self","namespace":"","upper_bound":"transformers.convert_slow_tokenizer.MPNetConverter","values":[],"variance":0},"slots":null,"tuple_type":null,"type_vars":[],"typeddict_type":null}},"MarkupLMConverter":{".class":"SymbolTableNode","kind":"Gdef","node":{".class":"TypeInfo","_promote":[],"abstract_attributes":[],"alt_promote":null,"bases":["transformers.convert_slow_tokenizer.Converter"],"dataclass_transform_spec":null,"declared_metaclass":null,"defn":{".class":"ClassDef","fullname":"transformers.convert_slow_tokenizer.MarkupLMConverter","name":"MarkupLMConverter","type_vars":[]},"deletable_attributes":[],"deprecated":null,"flags":[],"fullname":"transformers.convert_slow_tokenizer.MarkupLMConverter","has_param_spec_type":false,"metaclass_type":null,"metadata":{},"module_name":"transformers.convert_slow_tokenizer","mro":["transformers.convert_slow_tokenizer.MarkupLMConverter","transformers.convert_slow_tokenizer.Converter","builtins.object"],"names":{".class":"SymbolTable","converted":{".class":"SymbolTableNode","kind":"Mdef","node":{".class":"FuncDef","abstract_status":0,"arg_kinds":[0],"arg_names":["self"],"dataclass_transform_spec":null,"deprecated":null,"flags":["is_trivial_self"],"fullname":"transformers.convert_slow_tokenizer.MarkupLMConverter.converted","name":"converted","original_first_arg":"self","type":{".class":"CallableType","arg_kinds":[0],"arg_names":["self"],"arg_types":["transformers.convert_slow_tokenizer.MarkupLMConverter"],"fallback":"builtins.function","from_concatenate":false,"implicit":false,"imprecise_arg_kinds":false,"is_bound":false,"is_ellipsis_args":false,"name":"converted of MarkupLMConverter","ret_type":{".class":"AnyType","missing_import_name":"transformers.convert_slow_tokenizer.Tokenizer","source_any":null,"type_of_any":3},"type_guard":null,"type_is":null,"unpack_kwargs":false,"variables":[]}}}},"self_type":{".class":"TypeVarType","default":{".class":"AnyType","missing_import_name":null,"source_any":null,"type_of_any":4},"fullname":"transformers.convert_slow_tokenizer.MarkupLMConverter.Self","id":0,"name":"Self","namespace":"","upper_bound":"transformers.convert_slow_tokenizer.MarkupLMConverter","values":[],"variance":0},"slots":null,"tuple_type":null,"type_vars":[],"typeddict_type":null}},"MistralConverter":{".class":"SymbolTableNode","kind":"Gdef","node":{".class":"TypeInfo","_promote":[],"abstract_attributes":[],"alt_promote":null,"bases":["builtins.object"],"dataclass_transform_spec":null,"declared_metaclass":null,"defn":{".class":"ClassDef","fullname":"transformers.convert_slow_tokenizer.MistralConverter","name":"MistralConverter","type_vars":[]},"deletable_attributes":[],"deprecated":null,"flags":[],"fullname":"transformers.convert_slow_tokenizer.MistralConverter","has_param_spec_type":false,"metaclass_type":null,"metadata":{},"module_name":"transformers.convert_slow_tokenizer","mro":["transformers.convert_slow_tokenizer.MistralConverter","builtins.object"],"names":{".class":"SymbolTable","__init__":{".class":"SymbolTableNode","kind":"Mdef","node":{".class":"FuncDef","abstract_status":0,"arg_kinds":[0,1,1,1,1,4],"arg_names":["self","vocab_file","pattern","add_prefix_space","additional_special_tokens","kwargs"],"dataclass_transform_spec":null,"deprecated":null,"flags":[],"fullname":"transformers.convert_slow_tokenizer.MistralConverter.__init__","name":"__init__","original_first_arg":"self","type":null}},"add_prefix_space":{".class":"SymbolTableNode","implicit":true,"kind":"Mdef","node":{".class":"Var","flags":["is_ready","is_inferred"],"fullname":"transformers.convert_slow_tokenizer.MistralConverter.add_prefix_space","name":"add_prefix_space","setter_type":null,"type":{".class":"AnyType","missing_import_name":null,"source_any":null,"type_of_any":1}}},"additional_special_tokens":{".class":"SymbolTableNode","implicit":true,"kind":"Mdef","node":{".class":"Var","flags":["is_ready","is_inferred"],"fullname":"transformers.convert_slow_tokenizer.MistralConverter.additional_special_tokens","name":"additional_special_tokens","setter_type":null,"type":{".class":"AnyType","missing_import_name":null,"source_any":null,"type_of_any":1}}},"converted":{".class":"SymbolTableNode","kind":"Mdef","node":{".class":"FuncDef","abstract_status":0,"arg_kinds":[0],"arg_names":["self"],"dataclass_transform_spec":null,"deprecated":null,"flags":["is_trivial_self"],"fullname":"transformers.convert_slow_tokenizer.MistralConverter.converted","name":"converted","original_first_arg":"self","type":{".class":"CallableType","arg_kinds":[0],"arg_names":["self"],"arg_types":["transformers.convert_slow_tokenizer.MistralConverter"],"fallback":"builtins.function","from_concatenate":false,"implicit":false,"imprecise_arg_kinds":false,"is_bound":false,"is_ellipsis_args":false,"name":"converted of MistralConverter","ret_type":{".class":"AnyType","missing_import_name":"transformers.convert_slow_tokenizer.Tokenizer","source_any":null,"type_of_any":3},"type_guard":null,"type_is":null,"unpack_kwargs":false,"variables":[]}}},"extract_vocab_merges_from_model":{".class":"SymbolTableNode","kind":"Mdef","node":{".class":"FuncDef","abstract_status":0,"arg_kinds":[0,0],"arg_names":["self","tiktoken_url"],"dataclass_transform_spec":null,"deprecated":null,"flags":["is_trivial_self"],"fullname":"transformers.convert_slow_tokenizer.MistralConverter.extract_vocab_merges_from_model","name":"extract_vocab_merges_from_model","original_first_arg":"self","type":{".class":"CallableType","arg_kinds":[0,0],"arg_names":["self","tiktoken_url"],"arg_types":["transformers.convert_slow_tokenizer.MistralConverter","builtins.str"],"fallback":"builtins.function","from_concatenate":false,"implicit":false,"imprecise_arg_kinds":false,"is_bound":false,"is_ellipsis_args":false,"name":"extract_vocab_merges_from_model of MistralConverter","ret_type":{".class":"AnyType","missing_import_name":null,"source_any":null,"type_of_any":1},"type_guard":null,"type_is":null,"unpack_kwargs":false,"variables":[]}}},"pattern":{".class":"SymbolTableNode","implicit":true,"kind":"Mdef","node":{".class":"Var","flags":["is_ready","is_inferred"],"fullname":"transformers.convert_slow_tokenizer.MistralConverter.pattern","name":"pattern","setter_type":null,"type":{".class":"AnyType","missing_import_name":null,"source_any":null,"type_of_any":1}}},"tokenizer":{".class":"SymbolTableNode","kind":"Mdef","node":{".class":"FuncDef","abstract_status":0,"arg_kinds":[0],"arg_names":["self"],"dataclass_transform_spec":null,"deprecated":null,"flags":[],"fullname":"transformers.convert_slow_tokenizer.MistralConverter.tokenizer","name":"tokenizer","original_first_arg":"self","type":null}},"vocab_file":{".class":"SymbolTableNode","implicit":true,"kind":"Mdef","node":{".class":"Var","flags":["is_ready","is_inferred"],"fullname":"transformers.convert_slow_tokenizer.MistralConverter.vocab_file","name":"vocab_file","setter_type":null,"type":{".class":"AnyType","missing_import_name":null,"source_any":null,"type_of_any":1}}}},"self_type":{".class":"TypeVarType","default":{".class":"AnyType","missing_import_name":null,"source_any":null,"type_of_any":4},"fullname":"transformers.convert_slow_tokenizer.MistralConverter.Self","id":0,"name":"Self","namespace":"","upper_bound":"transformers.convert_slow_tokenizer.MistralConverter","values":[],"variance":0},"slots":null,"tuple_type":null,"type_vars":[],"typeddict_type":null}},"MoshiConverter":{".class":"SymbolTableNode","kind":"Gdef","node":{".class":"TypeInfo","_promote":[],"abstract_attributes":[],"alt_promote":null,"bases":["transformers.convert_slow_tokenizer.SpmConverter"],"dataclass_transform_spec":null,"declared_metaclass":null,"defn":{".class":"ClassDef","fullname":"transformers.convert_slow_tokenizer.MoshiConverter","name":"MoshiConverter","type_vars":[]},"deletable_attributes":[],"deprecated":null,"flags":[],"fullname":"transformers.convert_slow_tokenizer.MoshiConverter","has_param_spec_type":false,"metaclass_type":null,"metadata":{},"module_name":"transformers.convert_slow_tokenizer","mro":["transformers.convert_slow_tokenizer.MoshiConverter","transformers.convert_slow_tokenizer.SpmConverter","transformers.convert_slow_tokenizer.Converter","builtins.object"],"names":{".class":"SymbolTable","__init__":{".class":"SymbolTableNode","kind":"Mdef","node":{".class":"FuncDef","abstract_status":0,"arg_kinds":[0,0,1,4],"arg_names":["self","vocab_file","model_max_length","kwargs"],"dataclass_transform_spec":null,"deprecated":null,"flags":[],"fullname":"transformers.convert_slow_tokenizer.MoshiConverter.__init__","name":"__init__","original_first_arg":"self","type":null}},"decoder":{".class":"SymbolTableNode","kind":"Mdef","node":{".class":"FuncDef","abstract_status":0,"arg_kinds":[0,0,0],"arg_names":["self","replacement","add_prefix_space"],"dataclass_transform_spec":null,"deprecated":null,"flags":[],"fullname":"transformers.convert_slow_tokenizer.MoshiConverter.decoder","name":"decoder","original_first_arg":"self","type":null}},"handle_byte_fallback":{".class":"SymbolTableNode","kind":"Mdef","node":{".class":"Var","flags":["is_initialized_in_class","is_ready","is_inferred","has_explicit_value"],"fullname":"transformers.convert_slow_tokenizer.MoshiConverter.handle_byte_fallback","name":"handle_byte_fallback","setter_type":null,"type":"builtins.bool"}},"normalizer":{".class":"SymbolTableNode","kind":"Mdef","node":{".class":"FuncDef","abstract_status":0,"arg_kinds":[0,0],"arg_names":["self","proto"],"dataclass_transform_spec":null,"deprecated":null,"flags":[],"fullname":"transformers.convert_slow_tokenizer.MoshiConverter.normalizer","name":"normalizer","original_first_arg":"self","type":null}},"pre_tokenizer":{".class":"SymbolTableNode","kind":"Mdef","node":{".class":"FuncDef","abstract_status":0,"arg_kinds":[0,0,0],"arg_names":["self","replacement","add_prefix_space"],"dataclass_transform_spec":null,"deprecated":null,"flags":[],"fullname":"transformers.convert_slow_tokenizer.MoshiConverter.pre_tokenizer","name":"pre_tokenizer","original_first_arg":"self","type":null}}},"self_type":{".class":"TypeVarType","default":{".class":"AnyType","missing_import_name":null,"source_any":null,"type_of_any":4},"fullname":"transformers.convert_slow_tokenizer.MoshiConverter.Self","id":0,"name":"Self","namespace":"","upper_bound":"transformers.convert_slow_tokenizer.MoshiConverter","values":[],"variance":0},"slots":null,"tuple_type":null,"type_vars":[],"typeddict_type":null}},"NllbConverter":{".class":"SymbolTableNode","kind":"Gdef","node":{".class":"TypeInfo","_promote":[],"abstract_attributes":[],"alt_promote":null,"bases":["transformers.convert_slow_tokenizer.SpmConverter"],"dataclass_transform_spec":null,"declared_metaclass":null,"defn":{".class":"ClassDef","fullname":"transformers.convert_slow_tokenizer.NllbConverter","name":"NllbConverter","type_vars":[]},"deletable_attributes":[],"deprecated":null,"flags":[],"fullname":"transformers.convert_slow_tokenizer.NllbConverter","has_param_spec_type":false,"metaclass_type":null,"metadata":{},"module_name":"transformers.convert_slow_tokenizer","mro":["transformers.convert_slow_tokenizer.NllbConverter","transformers.convert_slow_tokenizer.SpmConverter","transformers.convert_slow_tokenizer.Converter","builtins.object"],"names":{".class":"SymbolTable","post_processor":{".class":"SymbolTableNode","kind":"Mdef","node":{".class":"FuncDef","abstract_status":0,"arg_kinds":[0],"arg_names":["self"],"dataclass_transform_spec":null,"deprecated":null,"flags":[],"fullname":"transformers.convert_slow_tokenizer.NllbConverter.post_processor","name":"post_processor","original_first_arg":"self","type":null}},"unk_id":{".class":"SymbolTableNode","kind":"Mdef","node":{".class":"FuncDef","abstract_status":0,"arg_kinds":[0,0],"arg_names":["self","proto"],"dataclass_transform_spec":null,"deprecated":null,"flags":[],"fullname":"transformers.convert_slow_tokenizer.NllbConverter.unk_id","name":"unk_id","original_first_arg":"self","type":null}},"vocab":{".class":"SymbolTableNode","kind":"Mdef","node":{".class":"FuncDef","abstract_status":0,"arg_kinds":[0,0],"arg_names":["self","proto"],"dataclass_transform_spec":null,"deprecated":null,"flags":[],"fullname":"transformers.convert_slow_tokenizer.NllbConverter.vocab","name":"vocab","original_first_arg":"self","type":null}}},"self_type":{".class":"TypeVarType","default":{".class":"AnyType","missing_import_name":null,"source_any":null,"type_of_any":4},"fullname":"transformers.convert_slow_tokenizer.NllbConverter.Self","id":0,"name":"Self","namespace":"","upper_bound":"transformers.convert_slow_tokenizer.NllbConverter","values":[],"variance":0},"slots":null,"tuple_type":null,"type_vars":[],"typeddict_type":null}},"OpenAIGPTConverter":{".class":"SymbolTableNode","kind":"Gdef","node":{".class":"TypeInfo","_promote":[],"abstract_attributes":[],"alt_promote":null,"bases":["transformers.convert_slow_tokenizer.Converter"],"dataclass_transform_spec":null,"declared_metaclass":null,"defn":{".class":"ClassDef","fullname":"transformers.convert_slow_tokenizer.OpenAIGPTConverter","name":"OpenAIGPTConverter","type_vars":[]},"deletable_attributes":[],"deprecated":null,"flags":[],"fullname":"transformers.convert_slow_tokenizer.OpenAIGPTConverter","has_param_spec_type":false,"metaclass_type":null,"metadata":{},"module_name":"transformers.convert_slow_tokenizer","mro":["transformers.convert_slow_tokenizer.OpenAIGPTConverter","transformers.convert_slow_tokenizer.Converter","builtins.object"],"names":{".class":"SymbolTable","converted":{".class":"SymbolTableNode","kind":"Mdef","node":{".class":"FuncDef","abstract_status":0,"arg_kinds":[0],"arg_names":["self"],"dataclass_transform_spec":null,"deprecated":null,"flags":["is_trivial_self"],"fullname":"transformers.convert_slow_tokenizer.OpenAIGPTConverter.converted","name":"converted","original_first_arg":"self","type":{".class":"CallableType","arg_kinds":[0],"arg_names":["self"],"arg_types":["transformers.convert_slow_tokenizer.OpenAIGPTConverter"],"fallback":"builtins.function","from_concatenate":false,"implicit":false,"imprecise_arg_kinds":false,"is_bound":false,"is_ellipsis_args":false,"name":"converted of OpenAIGPTConverter","ret_type":{".class":"AnyType","missing_import_name":"transformers.convert_slow_tokenizer.Tokenizer","source_any":null,"type_of_any":3},"type_guard":null,"type_is":null,"unpack_kwargs":false,"variables":[]}}}},"self_type":{".class":"TypeVarType","default":{".class":"AnyType","missing_import_name":null,"source_any":null,"type_of_any":4},"fullname":"transformers.convert_slow_tokenizer.OpenAIGPTConverter.Self","id":0,"name":"Self","namespace":"","upper_bound":"transformers.convert_slow_tokenizer.OpenAIGPTConverter","values":[],"variance":0},"slots":null,"tuple_type":null,"type_vars":[],"typeddict_type":null}},"Optional":{".class":"SymbolTableNode","cross_ref":"typing.Optional","kind":"Gdef"},"PROTOBUF_IMPORT_ERROR":{".class":"SymbolTableNode","cross_ref":"transformers.utils.import_utils.PROTOBUF_IMPORT_ERROR","kind":"Gdef"},"ParakeetConverter":{".class":"SymbolTableNode","kind":"Gdef","node":{".class":"TypeInfo","_promote":[],"abstract_attributes":[],"alt_promote":null,"bases":["transformers.convert_slow_tokenizer.SpmConverter"],"dataclass_transform_spec":null,"declared_metaclass":null,"defn":{".class":"ClassDef","fullname":"transformers.convert_slow_tokenizer.ParakeetConverter","name":"ParakeetConverter","type_vars":[]},"deletable_attributes":[],"deprecated":null,"flags":[],"fullname":"transformers.convert_slow_tokenizer.ParakeetConverter","has_param_spec_type":false,"metaclass_type":null,"metadata":{},"module_name":"transformers.convert_slow_tokenizer","mro":["transformers.convert_slow_tokenizer.ParakeetConverter","transformers.convert_slow_tokenizer.SpmConverter","transformers.convert_slow_tokenizer.Converter","builtins.object"],"names":{".class":"SymbolTable","__init__":{".class":"SymbolTableNode","kind":"Mdef","node":{".class":"FuncDef","abstract_status":0,"arg_kinds":[0,1,2],"arg_names":["self","vocab_file","args"],"dataclass_transform_spec":null,"deprecated":null,"flags":[],"fullname":"transformers.convert_slow_tokenizer.ParakeetConverter.__init__","name":"__init__","original_first_arg":"self","type":null}},"handle_byte_fallback":{".class":"SymbolTableNode","kind":"Mdef","node":{".class":"Var","flags":["is_initialized_in_class","is_ready","is_inferred","has_explicit_value"],"fullname":"transformers.convert_slow_tokenizer.ParakeetConverter.handle_byte_fallback","name":"handle_byte_fallback","setter_type":null,"type":"builtins.bool"}},"tokenizer":{".class":"SymbolTableNode","kind":"Mdef","node":{".class":"FuncDef","abstract_status":0,"arg_kinds":[0,0],"arg_names":["self","proto"],"dataclass_transform_spec":null,"deprecated":null,"flags":[],"fullname":"transformers.convert_slow_tokenizer.ParakeetConverter.tokenizer","name":"tokenizer","original_first_arg":"self","type":null}},"vocab_file":{".class":"SymbolTableNode","implicit":true,"kind":"Mdef","node":{".class":"Var","flags":["is_ready","is_inferred"],"fullname":"transformers.convert_slow_tokenizer.ParakeetConverter.vocab_file","name":"vocab_file","setter_type":null,"type":{".class":"AnyType","missing_import_name":null,"source_any":null,"type_of_any":1}}}},"self_type":{".class":"TypeVarType","default":{".class":"AnyType","missing_import_name":null,"source_any":null,"type_of_any":4},"fullname":"transformers.convert_slow_tokenizer.ParakeetConverter.Self","id":0,"name":"Self","namespace":"","upper_bound":"transformers.convert_slow_tokenizer.ParakeetConverter","values":[],"variance":0},"slots":null,"tuple_type":null,"type_vars":[],"typeddict_type":null}},"PegasusConverter":{".class":"SymbolTableNode","kind":"Gdef","node":{".class":"TypeInfo","_promote":[],"abstract_attributes":[],"alt_promote":null,"bases":["transformers.convert_slow_tokenizer.SpmConverter"],"dataclass_transform_spec":null,"declared_metaclass":null,"defn":{".class":"ClassDef","fullname":"transformers.convert_slow_tokenizer.PegasusConverter","name":"PegasusConverter","type_vars":[]},"deletable_attributes":[],"deprecated":null,"flags":[],"fullname":"transformers.convert_slow_tokenizer.PegasusConverter","has_param_spec_type":false,"metaclass_type":null,"metadata":{},"module_name":"transformers.convert_slow_tokenizer","mro":["transformers.convert_slow_tokenizer.PegasusConverter","transformers.convert_slow_tokenizer.SpmConverter","transformers.convert_slow_tokenizer.Converter","builtins.object"],"names":{".class":"SymbolTable","post_processor":{".class":"SymbolTableNode","kind":"Mdef","node":{".class":"FuncDef","abstract_status":0,"arg_kinds":[0],"arg_names":["self"],"dataclass_transform_spec":null,"deprecated":null,"flags":[],"fullname":"transformers.convert_slow_tokenizer.PegasusConverter.post_processor","name":"post_processor","original_first_arg":"self","type":null}},"pre_tokenizer":{".class":"SymbolTableNode","kind":"Mdef","node":{".class":"FuncDef","abstract_status":0,"arg_kinds":[0,0,0],"arg_names":["self","replacement","add_prefix_space"],"dataclass_transform_spec":null,"deprecated":null,"flags":[],"fullname":"transformers.convert_slow_tokenizer.PegasusConverter.pre_tokenizer","name":"pre_tokenizer","original_first_arg":"self","type":null}},"unk_id":{".class":"SymbolTableNode","kind":"Mdef","node":{".class":"FuncDef","abstract_status":0,"arg_kinds":[0,0],"arg_names":["self","proto"],"dataclass_transform_spec":null,"deprecated":null,"flags":[],"fullname":"transformers.convert_slow_tokenizer.PegasusConverter.unk_id","name":"unk_id","original_first_arg":"self","type":null}},"vocab":{".class":"SymbolTableNode","kind":"Mdef","node":{".class":"FuncDef","abstract_status":0,"arg_kinds":[0,0],"arg_names":["self","proto"],"dataclass_transform_spec":null,"deprecated":null,"flags":[],"fullname":"transformers.convert_slow_tokenizer.PegasusConverter.vocab","name":"vocab","original_first_arg":"self","type":null}}},"self_type":{".class":"TypeVarType","default":{".class":"AnyType","missing_import_name":null,"source_any":null,"type_of_any":4},"fullname":"transformers.convert_slow_tokenizer.PegasusConverter.Self","id":0,"name":"Self","namespace":"","upper_bound":"transformers.convert_slow_tokenizer.PegasusConverter","values":[],"variance":0},"slots":null,"tuple_type":null,"type_vars":[],"typeddict_type":null}},"Qwen2Converter":{".class":"SymbolTableNode","kind":"Gdef","node":{".class":"TypeInfo","_promote":[],"abstract_attributes":[],"alt_promote":null,"bases":["transformers.convert_slow_tokenizer.Converter"],"dataclass_transform_spec":null,"declared_metaclass":null,"defn":{".class":"ClassDef","fullname":"transformers.convert_slow_tokenizer.Qwen2Converter","name":"Qwen2Converter","type_vars":[]},"deletable_attributes":[],"deprecated":null,"flags":[],"fullname":"transformers.convert_slow_tokenizer.Qwen2Converter","has_param_spec_type":false,"metaclass_type":null,"metadata":{},"module_name":"transformers.convert_slow_tokenizer","mro":["transformers.convert_slow_tokenizer.Qwen2Converter","transformers.convert_slow_tokenizer.Converter","builtins.object"],"names":{".class":"SymbolTable","converted":{".class":"SymbolTableNode","kind":"Mdef","node":{".class":"FuncDef","abstract_status":0,"arg_kinds":[0,1,1],"arg_names":["self","vocab","merges"],"dataclass_transform_spec":null,"deprecated":null,"flags":["is_trivial_self"],"fullname":"transformers.convert_slow_tokenizer.Qwen2Converter.converted","name":"converted","original_first_arg":"self","type":{".class":"CallableType","arg_kinds":[0,1,1],"arg_names":["self","vocab","merges"],"arg_types":["transformers.convert_slow_tokenizer.Qwen2Converter",{".class":"UnionType","items":[{".class":"Instance","args":["builtins.str","builtins.int"],"extra_attrs":null,"type_ref":"builtins.dict"},{".class":"NoneType"}],"uses_pep604_syntax":false},{".class":"UnionType","items":[{".class":"Instance","args":[{".class":"TupleType","implicit":false,"items":["builtins.str","builtins.str"],"partial_fallback":{".class":"Instance","args":[{".class":"AnyType","missing_import_name":null,"source_any":null,"type_of_any":6}],"extra_attrs":null,"type_ref":"builtins.tuple"}}],"extra_attrs":null,"type_ref":"builtins.list"},{".class":"NoneType"}],"uses_pep604_syntax":false}],"fallback":"builtins.function","from_concatenate":false,"implicit":false,"imprecise_arg_kinds":false,"is_bound":false,"is_ellipsis_args":false,"name":"converted of Qwen2Converter","ret_type":{".class":"AnyType","missing_import_name":"transformers.convert_slow_tokenizer.Tokenizer","source_any":null,"type_of_any":3},"type_guard":null,"type_is":null,"unpack_kwargs":false,"variables":[]}}}},"self_type":{".class":"TypeVarType","default":{".class":"AnyType","missing_import_name":null,"source_any":null,"type_of_any":4},"fullname":"transformers.convert_slow_tokenizer.Qwen2Converter.Self","id":0,"name":"Self","namespace":"","upper_bound":"transformers.convert_slow_tokenizer.Qwen2Converter","values":[],"variance":0},"slots":null,"tuple_type":null,"type_vars":[],"typeddict_type":null}},"ReformerConverter":{".class":"SymbolTableNode","kind":"Gdef","node":{".class":"TypeInfo","_promote":[],"abstract_attributes":[],"alt_promote":null,"bases":["transformers.convert_slow_tokenizer.SpmConverter"],"dataclass_transform_spec":null,"declared_metaclass":null,"defn":{".class":"ClassDef","fullname":"transformers.convert_slow_tokenizer.ReformerConverter","name":"ReformerConverter","type_vars":[]},"deletable_attributes":[],"deprecated":null,"flags":[],"fullname":"transformers.convert_slow_tokenizer.ReformerConverter","has_param_spec_type":false,"metaclass_type":null,"metadata":{},"module_name":"transformers.convert_slow_tokenizer","mro":["transformers.convert_slow_tokenizer.ReformerConverter","transformers.convert_slow_tokenizer.SpmConverter","transformers.convert_slow_tokenizer.Converter","builtins.object"],"names":{".class":"SymbolTable"},"self_type":{".class":"TypeVarType","default":{".class":"AnyType","missing_import_name":null,"source_any":null,"type_of_any":4},"fullname":"transformers.convert_slow_tokenizer.ReformerConverter.Self","id":0,"name":"Self","namespace":"","upper_bound":"transformers.convert_slow_tokenizer.ReformerConverter","values":[],"variance":0},"slots":null,"tuple_type":null,"type_vars":[],"typeddict_type":null}},"Regex":{".class":"SymbolTableNode","kind":"Gdef","node":{".class":"Var","flags":["is_suppressed_import","is_ready","is_inferred"],"fullname":"transformers.convert_slow_tokenizer.Regex","name":"Regex","setter_type":null,"type":{".class":"AnyType","missing_import_name":"transformers.convert_slow_tokenizer.Regex","source_any":null,"type_of_any":3}}},"RemBertConverter":{".class":"SymbolTableNode","kind":"Gdef","node":{".class":"TypeInfo","_promote":[],"abstract_attributes":[],"alt_promote":null,"bases":["transformers.convert_slow_tokenizer.SpmConverter"],"dataclass_transform_spec":null,"declared_metaclass":null,"defn":{".class":"ClassDef","fullname":"transformers.convert_slow_tokenizer.RemBertConverter","name":"RemBertConverter","type_vars":[]},"deletable_attributes":[],"deprecated":null,"flags":[],"fullname":"transformers.convert_slow_tokenizer.RemBertConverter","has_param_spec_type":false,"metaclass_type":null,"metadata":{},"module_name":"transformers.convert_slow_tokenizer","mro":["transformers.convert_slow_tokenizer.RemBertConverter","transformers.convert_slow_tokenizer.SpmConverter","transformers.convert_slow_tokenizer.Converter","builtins.object"],"names":{".class":"SymbolTable","normalizer":{".class":"SymbolTableNode","kind":"Mdef","node":{".class":"FuncDef","abstract_status":0,"arg_kinds":[0,0],"arg_names":["self","proto"],"dataclass_transform_spec":null,"deprecated":null,"flags":[],"fullname":"transformers.convert_slow_tokenizer.RemBertConverter.normalizer","name":"normalizer","original_first_arg":"self","type":null}},"post_processor":{".class":"SymbolTableNode","kind":"Mdef","node":{".class":"FuncDef","abstract_status":0,"arg_kinds":[0],"arg_names":["self"],"dataclass_transform_spec":null,"deprecated":null,"flags":[],"fullname":"transformers.convert_slow_tokenizer.RemBertConverter.post_processor","name":"post_processor","original_first_arg":"self","type":null}}},"self_type":{".class":"TypeVarType","default":{".class":"AnyType","missing_import_name":null,"source_any":null,"type_of_any":4},"fullname":"transformers.convert_slow_tokenizer.RemBertConverter.Self","id":0,"name":"Self","namespace":"","upper_bound":"transformers.convert_slow_tokenizer.RemBertConverter","values":[],"variance":0},"slots":null,"tuple_type":null,"type_vars":[],"typeddict_type":null}},"RoFormerConverter":{".class":"SymbolTableNode","kind":"Gdef","node":{".class":"TypeInfo","_promote":[],"abstract_attributes":[],"alt_promote":null,"bases":["transformers.convert_slow_tokenizer.Converter"],"dataclass_transform_spec":null,"declared_metaclass":null,"defn":{".class":"ClassDef","fullname":"transformers.convert_slow_tokenizer.RoFormerConverter","name":"RoFormerConverter","type_vars":[]},"deletable_attributes":[],"deprecated":null,"flags":[],"fullname":"transformers.convert_slow_tokenizer.RoFormerConverter","has_param_spec_type":false,"metaclass_type":null,"metadata":{},"module_name":"transformers.convert_slow_tokenizer","mro":["transformers.convert_slow_tokenizer.RoFormerConverter","transformers.convert_slow_tokenizer.Converter","builtins.object"],"names":{".class":"SymbolTable","converted":{".class":"SymbolTableNode","kind":"Mdef","node":{".class":"FuncDef","abstract_status":0,"arg_kinds":[0],"arg_names":["self"],"dataclass_transform_spec":null,"deprecated":null,"flags":["is_trivial_self"],"fullname":"transformers.convert_slow_tokenizer.RoFormerConverter.converted","name":"converted","original_first_arg":"self","type":{".class":"CallableType","arg_kinds":[0],"arg_names":["self"],"arg_types":["transformers.convert_slow_tokenizer.RoFormerConverter"],"fallback":"builtins.function","from_concatenate":false,"implicit":false,"imprecise_arg_kinds":false,"is_bound":false,"is_ellipsis_args":false,"name":"converted of RoFormerConverter","ret_type":{".class":"AnyType","missing_import_name":"transformers.convert_slow_tokenizer.Tokenizer","source_any":null,"type_of_any":3},"type_guard":null,"type_is":null,"unpack_kwargs":false,"variables":[]}}}},"self_type":{".class":"TypeVarType","default":{".class":"AnyType","missing_import_name":null,"source_any":null,"type_of_any":4},"fullname":"transformers.convert_slow_tokenizer.RoFormerConverter.Self","id":0,"name":"Self","namespace":"","upper_bound":"transformers.convert_slow_tokenizer.RoFormerConverter","values":[],"variance":0},"slots":null,"tuple_type":null,"type_vars":[],"typeddict_type":null}},"RobertaConverter":{".class":"SymbolTableNode","kind":"Gdef","node":{".class":"TypeInfo","_promote":[],"abstract_attributes":[],"alt_promote":null,"bases":["transformers.convert_slow_tokenizer.Converter"],"dataclass_transform_spec":null,"declared_metaclass":null,"defn":{".class":"ClassDef","fullname":"transformers.convert_slow_tokenizer.RobertaConverter","name":"RobertaConverter","type_vars":[]},"deletable_attributes":[],"deprecated":null,"flags":[],"fullname":"transformers.convert_slow_tokenizer.RobertaConverter","has_param_spec_type":false,"metaclass_type":null,"metadata":{},"module_name":"transformers.convert_slow_tokenizer","mro":["transformers.convert_slow_tokenizer.RobertaConverter","transformers.convert_slow_tokenizer.Converter","builtins.object"],"names":{".class":"SymbolTable","converted":{".class":"SymbolTableNode","kind":"Mdef","node":{".class":"FuncDef","abstract_status":0,"arg_kinds":[0],"arg_names":["self"],"dataclass_transform_spec":null,"deprecated":null,"flags":["is_trivial_self"],"fullname":"transformers.convert_slow_tokenizer.RobertaConverter.converted","name":"converted","original_first_arg":"self","type":{".class":"CallableType","arg_kinds":[0],"arg_names":["self"],"arg_types":["transformers.convert_slow_tokenizer.RobertaConverter"],"fallback":"builtins.function","from_concatenate":false,"implicit":false,"imprecise_arg_kinds":false,"is_bound":false,"is_ellipsis_args":false,"name":"converted of RobertaConverter","ret_type":{".class":"AnyType","missing_import_name":"transformers.convert_slow_tokenizer.Tokenizer","source_any":null,"type_of_any":3},"type_guard":null,"type_is":null,"unpack_kwargs":false,"variables":[]}}}},"self_type":{".class":"TypeVarType","default":{".class":"AnyType","missing_import_name":null,"source_any":null,"type_of_any":4},"fullname":"transformers.convert_slow_tokenizer.RobertaConverter.Self","id":0,"name":"Self","namespace":"","upper_bound":"transformers.convert_slow_tokenizer.RobertaConverter","values":[],"variance":0},"slots":null,"tuple_type":null,"type_vars":[],"typeddict_type":null}},"SLOW_TO_FAST_CONVERTERS":{".class":"SymbolTableNode","kind":"Gdef","node":{".class":"Var","flags":["is_ready","is_inferred","has_explicit_value"],"fullname":"transformers.convert_slow_tokenizer.SLOW_TO_FAST_CONVERTERS","name":"SLOW_TO_FAST_CONVERTERS","setter_type":null,"type":{".class":"Instance","args":["builtins.str","builtins.type"],"extra_attrs":null,"type_ref":"builtins.dict"}}},"SeamlessM4TConverter":{".class":"SymbolTableNode","kind":"Gdef","node":{".class":"TypeInfo","_promote":[],"abstract_attributes":[],"alt_promote":null,"bases":["transformers.convert_slow_tokenizer.SpmConverter"],"dataclass_transform_spec":null,"declared_metaclass":null,"defn":{".class":"ClassDef","fullname":"transformers.convert_slow_tokenizer.SeamlessM4TConverter","name":"SeamlessM4TConverter","type_vars":[]},"deletable_attributes":[],"deprecated":null,"flags":[],"fullname":"transformers.convert_slow_tokenizer.SeamlessM4TConverter","has_param_spec_type":false,"metaclass_type":null,"metadata":{},"module_name":"transformers.convert_slow_tokenizer","mro":["transformers.convert_slow_tokenizer.SeamlessM4TConverter","transformers.convert_slow_tokenizer.SpmConverter","transformers.convert_slow_tokenizer.Converter","builtins.object"],"names":{".class":"SymbolTable","post_processor":{".class":"SymbolTableNode","kind":"Mdef","node":{".class":"FuncDef","abstract_status":0,"arg_kinds":[0],"arg_names":["self"],"dataclass_transform_spec":null,"deprecated":null,"flags":[],"fullname":"transformers.convert_slow_tokenizer.SeamlessM4TConverter.post_processor","name":"post_processor","original_first_arg":"self","type":null}},"unk_id":{".class":"SymbolTableNode","kind":"Mdef","node":{".class":"FuncDef","abstract_status":0,"arg_kinds":[0,0],"arg_names":["self","proto"],"dataclass_transform_spec":null,"deprecated":null,"flags":[],"fullname":"transformers.convert_slow_tokenizer.SeamlessM4TConverter.unk_id","name":"unk_id","original_first_arg":"self","type":null}},"vocab":{".class":"SymbolTableNode","kind":"Mdef","node":{".class":"FuncDef","abstract_status":0,"arg_kinds":[0,0],"arg_names":["self","proto"],"dataclass_transform_spec":null,"deprecated":null,"flags":[],"fullname":"transformers.convert_slow_tokenizer.SeamlessM4TConverter.vocab","name":"vocab","original_first_arg":"self","type":null}}},"self_type":{".class":"TypeVarType","default":{".class":"AnyType","missing_import_name":null,"source_any":null,"type_of_any":4},"fullname":"transformers.convert_slow_tokenizer.SeamlessM4TConverter.Self","id":0,"name":"Self","namespace":"","upper_bound":"transformers.convert_slow_tokenizer.SeamlessM4TConverter","values":[],"variance":0},"slots":null,"tuple_type":null,"type_vars":[],"typeddict_type":null}},"SentencePieceExtractor":{".class":"SymbolTableNode","kind":"Gdef","node":{".class":"TypeInfo","_promote":[],"abstract_attributes":[],"alt_promote":null,"bases":["builtins.object"],"dataclass_transform_spec":null,"declared_metaclass":null,"defn":{".class":"ClassDef","fullname":"transformers.convert_slow_tokenizer.SentencePieceExtractor","name":"SentencePieceExtractor","type_vars":[]},"deletable_attributes":[],"deprecated":null,"flags":[],"fullname":"transformers.convert_slow_tokenizer.SentencePieceExtractor","has_param_spec_type":false,"metaclass_type":null,"metadata":{},"module_name":"transformers.convert_slow_tokenizer","mro":["transformers.convert_slow_tokenizer.SentencePieceExtractor","builtins.object"],"names":{".class":"SymbolTable","__init__":{".class":"SymbolTableNode","kind":"Mdef","node":{".class":"FuncDef","abstract_status":0,"arg_kinds":[0,0],"arg_names":["self","model"],"dataclass_transform_spec":null,"deprecated":null,"flags":["is_trivial_self"],"fullname":"transformers.convert_slow_tokenizer.SentencePieceExtractor.__init__","name":"__init__","original_first_arg":"self","type":{".class":"CallableType","arg_kinds":[0,0],"arg_names":["self","model"],"arg_types":["transformers.convert_slow_tokenizer.SentencePieceExtractor","builtins.str"],"fallback":"builtins.function","from_concatenate":false,"implicit":false,"imprecise_arg_kinds":false,"is_bound":false,"is_ellipsis_args":false,"name":"__init__ of SentencePieceExtractor","ret_type":{".class":"NoneType"},"type_guard":null,"type_is":null,"unpack_kwargs":false,"variables":[]}}},"extract":{".class":"SymbolTableNode","kind":"Mdef","node":{".class":"FuncDef","abstract_status":0,"arg_kinds":[0,1],"arg_names":["self","vocab_scores"],"dataclass_transform_spec":null,"deprecated":null,"flags":["is_trivial_self"],"fullname":"transformers.convert_slow_tokenizer.SentencePieceExtractor.extract","name":"extract","original_first_arg":"self","type":{".class":"CallableType","arg_kinds":[0,1],"arg_names":["self","vocab_scores"],"arg_types":["transformers.convert_slow_tokenizer.SentencePieceExtractor",{".class":"AnyType","missing_import_name":null,"source_any":null,"type_of_any":1}],"fallback":"builtins.function","from_concatenate":false,"implicit":false,"imprecise_arg_kinds":false,"is_bound":false,"is_ellipsis_args":false,"name":"extract of SentencePieceExtractor","ret_type":{".class":"TupleType","implicit":false,"items":[{".class":"Instance","args":["builtins.str","builtins.int"],"extra_attrs":null,"type_ref":"builtins.dict"},{".class":"Instance","args":[{".class":"Instance","args":[{".class":"AnyType","missing_import_name":null,"source_any":null,"type_of_any":4}],"extra_attrs":null,"type_ref":"builtins.tuple"}],"extra_attrs":null,"type_ref":"builtins.list"}],"partial_fallback":{".class":"Instance","args":[{".class":"AnyType","missing_import_name":null,"source_any":null,"type_of_any":6}],"extra_attrs":null,"type_ref":"builtins.tuple"}},"type_guard":null,"type_is":null,"unpack_kwargs":false,"variables":[]}}},"sp":{".class":"SymbolTableNode","implicit":true,"kind":"Mdef","node":{".class":"Var","flags":["is_ready","is_inferred"],"fullname":"transformers.convert_slow_tokenizer.SentencePieceExtractor.sp","name":"sp","setter_type":null,"type":{".class":"AnyType","missing_import_name":"transformers.convert_slow_tokenizer.SentencePieceExtractor.SentencePieceProcessor","source_any":{".class":"AnyType","missing_import_name":"transformers.convert_slow_tokenizer.SentencePieceExtractor.SentencePieceProcessor","source_any":null,"type_of_any":3},"type_of_any":7}}}},"self_type":{".class":"TypeVarType","default":{".class":"AnyType","missing_import_name":null,"source_any":null,"type_of_any":4},"fullname":"transformers.convert_slow_tokenizer.SentencePieceExtractor.Self","id":0,"name":"Self","namespace":"","upper_bound":"transformers.convert_slow_tokenizer.SentencePieceExtractor","values":[],"variance":0},"slots":null,"tuple_type":null,"type_vars":[],"typeddict_type":null}},"SplinterConverter":{".class":"SymbolTableNode","kind":"Gdef","node":{".class":"TypeInfo","_promote":[],"abstract_attributes":[],"alt_promote":null,"bases":["transformers.convert_slow_tokenizer.Converter"],"dataclass_transform_spec":null,"declared_metaclass":null,"defn":{".class":"ClassDef","fullname":"transformers.convert_slow_tokenizer.SplinterConverter","name":"SplinterConverter","type_vars":[]},"deletable_attributes":[],"deprecated":null,"flags":[],"fullname":"transformers.convert_slow_tokenizer.SplinterConverter","has_param_spec_type":false,"metaclass_type":null,"metadata":{},"module_name":"transformers.convert_slow_tokenizer","mro":["transformers.convert_slow_tokenizer.SplinterConverter","transformers.convert_slow_tokenizer.Converter","builtins.object"],"names":{".class":"SymbolTable","converted":{".class":"SymbolTableNode","kind":"Mdef","node":{".class":"FuncDef","abstract_status":0,"arg_kinds":[0],"arg_names":["self"],"dataclass_transform_spec":null,"deprecated":null,"flags":["is_trivial_self"],"fullname":"transformers.convert_slow_tokenizer.SplinterConverter.converted","name":"converted","original_first_arg":"self","type":{".class":"CallableType","arg_kinds":[0],"arg_names":["self"],"arg_types":["transformers.convert_slow_tokenizer.SplinterConverter"],"fallback":"builtins.function","from_concatenate":false,"implicit":false,"imprecise_arg_kinds":false,"is_bound":false,"is_ellipsis_args":false,"name":"converted of SplinterConverter","ret_type":{".class":"AnyType","missing_import_name":"transformers.convert_slow_tokenizer.Tokenizer","source_any":null,"type_of_any":3},"type_guard":null,"type_is":null,"unpack_kwargs":false,"variables":[]}}}},"self_type":{".class":"TypeVarType","default":{".class":"AnyType","missing_import_name":null,"source_any":null,"type_of_any":4},"fullname":"transformers.convert_slow_tokenizer.SplinterConverter.Self","id":0,"name":"Self","namespace":"","upper_bound":"transformers.convert_slow_tokenizer.SplinterConverter","values":[],"variance":0},"slots":null,"tuple_type":null,"type_vars":[],"typeddict_type":null}},"SpmConverter":{".class":"SymbolTableNode","kind":"Gdef","node":{".class":"TypeInfo","_promote":[],"abstract_attributes":[],"alt_promote":null,"bases":["transformers.convert_slow_tokenizer.Converter"],"dataclass_transform_spec":null,"declared_metaclass":null,"defn":{".class":"ClassDef","fullname":"transformers.convert_slow_tokenizer.SpmConverter","name":"SpmConverter","type_vars":[]},"deletable_attributes":[],"deprecated":null,"flags":[],"fullname":"transformers.convert_slow_tokenizer.SpmConverter","has_param_spec_type":false,"metaclass_type":null,"metadata":{},"module_name":"transformers.convert_slow_tokenizer","mro":["transformers.convert_slow_tokenizer.SpmConverter","transformers.convert_slow_tokenizer.Converter","builtins.object"],"names":{".class":"SymbolTable","SpmExtractor":{".class":"SymbolTableNode","kind":"Mdef","node":{".class":"Var","flags":["is_initialized_in_class","is_ready","is_inferred","has_explicit_value"],"fullname":"transformers.convert_slow_tokenizer.SpmConverter.SpmExtractor","name":"SpmExtractor","setter_type":null,"type":{".class":"CallableType","arg_kinds":[0],"arg_names":["model"],"arg_types":["builtins.str"],"fallback":"builtins.type","from_concatenate":false,"implicit":false,"imprecise_arg_kinds":false,"is_bound":true,"is_ellipsis_args":false,"name":null,"ret_type":"transformers.convert_slow_tokenizer.SentencePieceExtractor","type_guard":null,"type_is":null,"unpack_kwargs":false,"variables":[]}}},"__init__":{".class":"SymbolTableNode","kind":"Mdef","node":{".class":"FuncDef","abstract_status":0,"arg_kinds":[0,2],"arg_names":["self","args"],"dataclass_transform_spec":null,"deprecated":null,"flags":[],"fullname":"transformers.convert_slow_tokenizer.SpmConverter.__init__","name":"__init__","original_first_arg":"self","type":null}},"converted":{".class":"SymbolTableNode","kind":"Mdef","node":{".class":"FuncDef","abstract_status":0,"arg_kinds":[0],"arg_names":["self"],"dataclass_transform_spec":null,"deprecated":null,"flags":["is_trivial_self"],"fullname":"transformers.convert_slow_tokenizer.SpmConverter.converted","name":"converted","original_first_arg":"self","type":{".class":"CallableType","arg_kinds":[0],"arg_names":["self"],"arg_types":["transformers.convert_slow_tokenizer.SpmConverter"],"fallback":"builtins.function","from_concatenate":false,"implicit":false,"imprecise_arg_kinds":false,"is_bound":false,"is_ellipsis_args":false,"name":"converted of SpmConverter","ret_type":{".class":"AnyType","missing_import_name":"transformers.convert_slow_tokenizer.Tokenizer","source_any":null,"type_of_any":3},"type_guard":null,"type_is":null,"unpack_kwargs":false,"variables":[]}}},"decoder":{".class":"SymbolTableNode","kind":"Mdef","node":{".class":"FuncDef","abstract_status":0,"arg_kinds":[0,0,0],"arg_names":["self","replacement","add_prefix_space"],"dataclass_transform_spec":null,"deprecated":null,"flags":[],"fullname":"transformers.convert_slow_tokenizer.SpmConverter.decoder","name":"decoder","original_first_arg":"self","type":null}},"handle_byte_fallback":{".class":"SymbolTableNode","kind":"Mdef","node":{".class":"Var","flags":["is_initialized_in_class","is_ready","is_inferred","has_explicit_value"],"fullname":"transformers.convert_slow_tokenizer.SpmConverter.handle_byte_fallback","name":"handle_byte_fallback","setter_type":null,"type":"builtins.bool"}},"normalizer":{".class":"SymbolTableNode","kind":"Mdef","node":{".class":"FuncDef","abstract_status":0,"arg_kinds":[0,0],"arg_names":["self","proto"],"dataclass_transform_spec":null,"deprecated":null,"flags":[],"fullname":"transformers.convert_slow_tokenizer.SpmConverter.normalizer","name":"normalizer","original_first_arg":"self","type":null}},"post_processor":{".class":"SymbolTableNode","kind":"Mdef","node":{".class":"FuncDef","abstract_status":0,"arg_kinds":[0],"arg_names":["self"],"dataclass_transform_spec":null,"deprecated":null,"flags":[],"fullname":"transformers.convert_slow_tokenizer.SpmConverter.post_processor","name":"post_processor","original_first_arg":"self","type":null}},"pre_tokenizer":{".class":"SymbolTableNode","kind":"Mdef","node":{".class":"FuncDef","abstract_status":0,"arg_kinds":[0,0,0],"arg_names":["self","replacement","add_prefix_space"],"dataclass_transform_spec":null,"deprecated":null,"flags":[],"fullname":"transformers.convert_slow_tokenizer.SpmConverter.pre_tokenizer","name":"pre_tokenizer","original_first_arg":"self","type":null}},"proto":{".class":"SymbolTableNode","implicit":true,"kind":"Mdef","node":{".class":"Var","flags":["is_ready","is_inferred"],"fullname":"transformers.convert_slow_tokenizer.SpmConverter.proto","name":"proto","setter_type":null,"type":{".class":"AnyType","missing_import_name":null,"source_any":null,"type_of_any":1}}},"special_tokens":{".class":"SymbolTableNode","kind":"Mdef","node":{".class":"Var","flags":["is_initialized_in_class","is_ready","is_inferred","invalid_partial_type","has_explicit_value"],"fullname":"transformers.convert_slow_tokenizer.SpmConverter.special_tokens","name":"special_tokens","setter_type":null,"type":{".class":"Instance","args":[{".class":"AnyType","missing_import_name":null,"source_any":null,"type_of_any":1},{".class":"AnyType","missing_import_name":null,"source_any":null,"type_of_any":1}],"extra_attrs":null,"type_ref":"builtins.dict"}}},"tokenizer":{".class":"SymbolTableNode","kind":"Mdef","node":{".class":"FuncDef","abstract_status":0,"arg_kinds":[0,0],"arg_names":["self","proto"],"dataclass_transform_spec":null,"deprecated":null,"flags":[],"fullname":"transformers.convert_slow_tokenizer.SpmConverter.tokenizer","name":"tokenizer","original_first_arg":"self","type":null}},"unk_id":{".class":"SymbolTableNode","kind":"Mdef","node":{".class":"FuncDef","abstract_status":0,"arg_kinds":[0,0],"arg_names":["self","proto"],"dataclass_transform_spec":null,"deprecated":null,"flags":[],"fullname":"transformers.convert_slow_tokenizer.SpmConverter.unk_id","name":"unk_id","original_first_arg":"self","type":null}},"vocab":{".class":"SymbolTableNode","kind":"Mdef","node":{".class":"FuncDef","abstract_status":0,"arg_kinds":[0,0],"arg_names":["self","proto"],"dataclass_transform_spec":null,"deprecated":null,"flags":[],"fullname":"transformers.convert_slow_tokenizer.SpmConverter.vocab","name":"vocab","original_first_arg":"self","type":null}}},"self_type":{".class":"TypeVarType","default":{".class":"AnyType","missing_import_name":null,"source_any":null,"type_of_any":4},"fullname":"transformers.convert_slow_tokenizer.SpmConverter.Self","id":0,"name":"Self","namespace":"","upper_bound":"transformers.convert_slow_tokenizer.SpmConverter","values":[],"variance":0},"slots":null,"tuple_type":null,"type_vars":[],"typeddict_type":null}},"T5Converter":{".class":"SymbolTableNode","kind":"Gdef","node":{".class":"TypeInfo","_promote":[],"abstract_attributes":[],"alt_promote":null,"bases":["transformers.convert_slow_tokenizer.SpmConverter"],"dataclass_transform_spec":null,"declared_metaclass":null,"defn":{".class":"ClassDef","fullname":"transformers.convert_slow_tokenizer.T5Converter","name":"T5Converter","type_vars":[]},"deletable_attributes":[],"deprecated":null,"flags":[],"fullname":"transformers.convert_slow_tokenizer.T5Converter","has_param_spec_type":false,"metaclass_type":null,"metadata":{},"module_name":"transformers.convert_slow_tokenizer","mro":["transformers.convert_slow_tokenizer.T5Converter","transformers.convert_slow_tokenizer.SpmConverter","transformers.convert_slow_tokenizer.Converter","builtins.object"],"names":{".class":"SymbolTable","post_processor":{".class":"SymbolTableNode","kind":"Mdef","node":{".class":"FuncDef","abstract_status":0,"arg_kinds":[0],"arg_names":["self"],"dataclass_transform_spec":null,"deprecated":null,"flags":[],"fullname":"transformers.convert_slow_tokenizer.T5Converter.post_processor","name":"post_processor","original_first_arg":"self","type":null}},"vocab":{".class":"SymbolTableNode","kind":"Mdef","node":{".class":"FuncDef","abstract_status":0,"arg_kinds":[0,0],"arg_names":["self","proto"],"dataclass_transform_spec":null,"deprecated":null,"flags":[],"fullname":"transformers.convert_slow_tokenizer.T5Converter.vocab","name":"vocab","original_first_arg":"self","type":null}}},"self_type":{".class":"TypeVarType","default":{".class":"AnyType","missing_import_name":null,"source_any":null,"type_of_any":4},"fullname":"transformers.convert_slow_tokenizer.T5Converter.Self","id":0,"name":"Self","namespace":"","upper_bound":"transformers.convert_slow_tokenizer.T5Converter","values":[],"variance":0},"slots":null,"tuple_type":null,"type_vars":[],"typeddict_type":null}},"TikTokenConverter":{".class":"SymbolTableNode","kind":"Gdef","node":{".class":"TypeInfo","_promote":[],"abstract_attributes":[],"alt_promote":null,"bases":["builtins.object"],"dataclass_transform_spec":null,"declared_metaclass":null,"defn":{".class":"ClassDef","fullname":"transformers.convert_slow_tokenizer.TikTokenConverter","name":"TikTokenConverter","type_vars":[]},"deletable_attributes":[],"deprecated":null,"flags":[],"fullname":"transformers.convert_slow_tokenizer.TikTokenConverter","has_param_spec_type":false,"metaclass_type":null,"metadata":{},"module_name":"transformers.convert_slow_tokenizer","mro":["transformers.convert_slow_tokenizer.TikTokenConverter","builtins.object"],"names":{".class":"SymbolTable","__init__":{".class":"SymbolTableNode","kind":"Mdef","node":{".class":"FuncDef","abstract_status":0,"arg_kinds":[0,1,1,1,1,4],"arg_names":["self","vocab_file","pattern","add_prefix_space","additional_special_tokens","kwargs"],"dataclass_transform_spec":null,"deprecated":null,"flags":[],"fullname":"transformers.convert_slow_tokenizer.TikTokenConverter.__init__","name":"__init__","original_first_arg":"self","type":null}},"add_prefix_space":{".class":"SymbolTableNode","implicit":true,"kind":"Mdef","node":{".class":"Var","flags":["is_ready","is_inferred"],"fullname":"transformers.convert_slow_tokenizer.TikTokenConverter.add_prefix_space","name":"add_prefix_space","setter_type":null,"type":{".class":"AnyType","missing_import_name":null,"source_any":null,"type_of_any":1}}},"additional_special_tokens":{".class":"SymbolTableNode","implicit":true,"kind":"Mdef","node":{".class":"Var","flags":["is_ready","is_inferred"],"fullname":"transformers.convert_slow_tokenizer.TikTokenConverter.additional_special_tokens","name":"additional_special_tokens","setter_type":null,"type":{".class":"AnyType","missing_import_name":null,"source_any":null,"type_of_any":1}}},"converted":{".class":"SymbolTableNode","kind":"Mdef","node":{".class":"FuncDef","abstract_status":0,"arg_kinds":[0],"arg_names":["self"],"dataclass_transform_spec":null,"deprecated":null,"flags":["is_trivial_self"],"fullname":"transformers.convert_slow_tokenizer.TikTokenConverter.converted","name":"converted","original_first_arg":"self","type":{".class":"CallableType","arg_kinds":[0],"arg_names":["self"],"arg_types":["transformers.convert_slow_tokenizer.TikTokenConverter"],"fallback":"builtins.function","from_concatenate":false,"implicit":false,"imprecise_arg_kinds":false,"is_bound":false,"is_ellipsis_args":false,"name":"converted of TikTokenConverter","ret_type":{".class":"AnyType","missing_import_name":"transformers.convert_slow_tokenizer.Tokenizer","source_any":null,"type_of_any":3},"type_guard":null,"type_is":null,"unpack_kwargs":false,"variables":[]}}},"extract_vocab_merges_from_model":{".class":"SymbolTableNode","kind":"Mdef","node":{".class":"FuncDef","abstract_status":0,"arg_kinds":[0,0],"arg_names":["self","tiktoken_url"],"dataclass_transform_spec":null,"deprecated":null,"flags":["is_trivial_self"],"fullname":"transformers.convert_slow_tokenizer.TikTokenConverter.extract_vocab_merges_from_model","name":"extract_vocab_merges_from_model","original_first_arg":"self","type":{".class":"CallableType","arg_kinds":[0,0],"arg_names":["self","tiktoken_url"],"arg_types":["transformers.convert_slow_tokenizer.TikTokenConverter","builtins.str"],"fallback":"builtins.function","from_concatenate":false,"implicit":false,"imprecise_arg_kinds":false,"is_bound":false,"is_ellipsis_args":false,"name":"extract_vocab_merges_from_model of TikTokenConverter","ret_type":{".class":"AnyType","missing_import_name":null,"source_any":null,"type_of_any":1},"type_guard":null,"type_is":null,"unpack_kwargs":false,"variables":[]}}},"pattern":{".class":"SymbolTableNode","implicit":true,"kind":"Mdef","node":{".class":"Var","flags":["is_ready","is_inferred"],"fullname":"transformers.convert_slow_tokenizer.TikTokenConverter.pattern","name":"pattern","setter_type":null,"type":{".class":"AnyType","missing_import_name":null,"source_any":null,"type_of_any":1}}},"tokenizer":{".class":"SymbolTableNode","kind":"Mdef","node":{".class":"FuncDef","abstract_status":0,"arg_kinds":[0],"arg_names":["self"],"dataclass_transform_spec":null,"deprecated":null,"flags":[],"fullname":"transformers.convert_slow_tokenizer.TikTokenConverter.tokenizer","name":"tokenizer","original_first_arg":"self","type":null}},"vocab_file":{".class":"SymbolTableNode","implicit":true,"kind":"Mdef","node":{".class":"Var","flags":["is_ready","is_inferred"],"fullname":"transformers.convert_slow_tokenizer.TikTokenConverter.vocab_file","name":"vocab_file","setter_type":null,"type":{".class":"AnyType","missing_import_name":null,"source_any":null,"type_of_any":1}}}},"self_type":{".class":"TypeVarType","default":{".class":"AnyType","missing_import_name":null,"source_any":null,"type_of_any":4},"fullname":"transformers.convert_slow_tokenizer.TikTokenConverter.Self","id":0,"name":"Self","namespace":"","upper_bound":"transformers.convert_slow_tokenizer.TikTokenConverter","values":[],"variance":0},"slots":null,"tuple_type":null,"type_vars":[],"typeddict_type":null}},"Tokenizer":{".class":"SymbolTableNode","kind":"Gdef","node":{".class":"Var","flags":["is_suppressed_import","is_ready","is_inferred"],"fullname":"transformers.convert_slow_tokenizer.Tokenizer","name":"Tokenizer","setter_type":null,"type":{".class":"AnyType","missing_import_name":"transformers.convert_slow_tokenizer.Tokenizer","source_any":null,"type_of_any":3}}},"UdopConverter":{".class":"SymbolTableNode","kind":"Gdef","node":{".class":"TypeInfo","_promote":[],"abstract_attributes":[],"alt_promote":null,"bases":["transformers.convert_slow_tokenizer.SpmConverter"],"dataclass_transform_spec":null,"declared_metaclass":null,"defn":{".class":"ClassDef","fullname":"transformers.convert_slow_tokenizer.UdopConverter","name":"UdopConverter","type_vars":[]},"deletable_attributes":[],"deprecated":null,"flags":[],"fullname":"transformers.convert_slow_tokenizer.UdopConverter","has_param_spec_type":false,"metaclass_type":null,"metadata":{},"module_name":"transformers.convert_slow_tokenizer","mro":["transformers.convert_slow_tokenizer.UdopConverter","transformers.convert_slow_tokenizer.SpmConverter","transformers.convert_slow_tokenizer.Converter","builtins.object"],"names":{".class":"SymbolTable","post_processor":{".class":"SymbolTableNode","kind":"Mdef","node":{".class":"FuncDef","abstract_status":0,"arg_kinds":[0],"arg_names":["self"],"dataclass_transform_spec":null,"deprecated":null,"flags":[],"fullname":"transformers.convert_slow_tokenizer.UdopConverter.post_processor","name":"post_processor","original_first_arg":"self","type":null}}},"self_type":{".class":"TypeVarType","default":{".class":"AnyType","missing_import_name":null,"source_any":null,"type_of_any":4},"fullname":"transformers.convert_slow_tokenizer.UdopConverter.Self","id":0,"name":"Self","namespace":"","upper_bound":"transformers.convert_slow_tokenizer.UdopConverter","values":[],"variance":0},"slots":null,"tuple_type":null,"type_vars":[],"typeddict_type":null}},"Unigram":{".class":"SymbolTableNode","kind":"Gdef","node":{".class":"Var","flags":["is_suppressed_import","is_ready","is_inferred"],"fullname":"transformers.convert_slow_tokenizer.Unigram","name":"Unigram","setter_type":null,"type":{".class":"AnyType","missing_import_name":"transformers.convert_slow_tokenizer.Unigram","source_any":null,"type_of_any":3}}},"WhisperConverter":{".class":"SymbolTableNode","kind":"Gdef","node":{".class":"TypeInfo","_promote":[],"abstract_attributes":[],"alt_promote":null,"bases":["transformers.convert_slow_tokenizer.Converter"],"dataclass_transform_spec":null,"declared_metaclass":null,"defn":{".class":"ClassDef","fullname":"transformers.convert_slow_tokenizer.WhisperConverter","name":"WhisperConverter","type_vars":[]},"deletable_attributes":[],"deprecated":null,"flags":[],"fullname":"transformers.convert_slow_tokenizer.WhisperConverter","has_param_spec_type":false,"metaclass_type":null,"metadata":{},"module_name":"transformers.convert_slow_tokenizer","mro":["transformers.convert_slow_tokenizer.WhisperConverter","transformers.convert_slow_tokenizer.Converter","builtins.object"],"names":{".class":"SymbolTable","converted":{".class":"SymbolTableNode","kind":"Mdef","node":{".class":"FuncDef","abstract_status":0,"arg_kinds":[0],"arg_names":["self"],"dataclass_transform_spec":null,"deprecated":null,"flags":["is_trivial_self"],"fullname":"transformers.convert_slow_tokenizer.WhisperConverter.converted","name":"converted","original_first_arg":"self","type":{".class":"CallableType","arg_kinds":[0],"arg_names":["self"],"arg_types":["transformers.convert_slow_tokenizer.WhisperConverter"],"fallback":"builtins.function","from_concatenate":false,"implicit":false,"imprecise_arg_kinds":false,"is_bound":false,"is_ellipsis_args":false,"name":"converted of WhisperConverter","ret_type":{".class":"AnyType","missing_import_name":"transformers.convert_slow_tokenizer.Tokenizer","source_any":null,"type_of_any":3},"type_guard":null,"type_is":null,"unpack_kwargs":false,"variables":[]}}}},"self_type":{".class":"TypeVarType","default":{".class":"AnyType","missing_import_name":null,"source_any":null,"type_of_any":4},"fullname":"transformers.convert_slow_tokenizer.WhisperConverter.Self","id":0,"name":"Self","namespace":"","upper_bound":"transformers.convert_slow_tokenizer.WhisperConverter","values":[],"variance":0},"slots":null,"tuple_type":null,"type_vars":[],"typeddict_type":null}},"WordPiece":{".class":"SymbolTableNode","kind":"Gdef","node":{".class":"Var","flags":["is_suppressed_import","is_ready","is_inferred"],"fullname":"transformers.convert_slow_tokenizer.WordPiece","name":"WordPiece","setter_type":null,"type":{".class":"AnyType","missing_import_name":"transformers.convert_slow_tokenizer.WordPiece","source_any":null,"type_of_any":3}}},"XGLMConverter":{".class":"SymbolTableNode","kind":"Gdef","node":{".class":"TypeInfo","_promote":[],"abstract_attributes":[],"alt_promote":null,"bases":["transformers.convert_slow_tokenizer.SpmConverter"],"dataclass_transform_spec":null,"declared_metaclass":null,"defn":{".class":"ClassDef","fullname":"transformers.convert_slow_tokenizer.XGLMConverter","name":"XGLMConverter","type_vars":[]},"deletable_attributes":[],"deprecated":null,"flags":[],"fullname":"transformers.convert_slow_tokenizer.XGLMConverter","has_param_spec_type":false,"metaclass_type":null,"metadata":{},"module_name":"transformers.convert_slow_tokenizer","mro":["transformers.convert_slow_tokenizer.XGLMConverter","transformers.convert_slow_tokenizer.SpmConverter","transformers.convert_slow_tokenizer.Converter","builtins.object"],"names":{".class":"SymbolTable","post_processor":{".class":"SymbolTableNode","kind":"Mdef","node":{".class":"FuncDef","abstract_status":0,"arg_kinds":[0],"arg_names":["self"],"dataclass_transform_spec":null,"deprecated":null,"flags":[],"fullname":"transformers.convert_slow_tokenizer.XGLMConverter.post_processor","name":"post_processor","original_first_arg":"self","type":null}},"unk_id":{".class":"SymbolTableNode","kind":"Mdef","node":{".class":"FuncDef","abstract_status":0,"arg_kinds":[0,0],"arg_names":["self","proto"],"dataclass_transform_spec":null,"deprecated":null,"flags":[],"fullname":"transformers.convert_slow_tokenizer.XGLMConverter.unk_id","name":"unk_id","original_first_arg":"self","type":null}},"vocab":{".class":"SymbolTableNode","kind":"Mdef","node":{".class":"FuncDef","abstract_status":0,"arg_kinds":[0,0],"arg_names":["self","proto"],"dataclass_transform_spec":null,"deprecated":null,"flags":[],"fullname":"transformers.convert_slow_tokenizer.XGLMConverter.vocab","name":"vocab","original_first_arg":"self","type":null}}},"self_type":{".class":"TypeVarType","default":{".class":"AnyType","missing_import_name":null,"source_any":null,"type_of_any":4},"fullname":"transformers.convert_slow_tokenizer.XGLMConverter.Self","id":0,"name":"Self","namespace":"","upper_bound":"transformers.convert_slow_tokenizer.XGLMConverter","values":[],"variance":0},"slots":null,"tuple_type":null,"type_vars":[],"typeddict_type":null}},"XLMRobertaConverter":{".class":"SymbolTableNode","kind":"Gdef","node":{".class":"TypeInfo","_promote":[],"abstract_attributes":[],"alt_promote":null,"bases":["transformers.convert_slow_tokenizer.SpmConverter"],"dataclass_transform_spec":null,"declared_metaclass":null,"defn":{".class":"ClassDef","fullname":"transformers.convert_slow_tokenizer.XLMRobertaConverter","name":"XLMRobertaConverter","type_vars":[]},"deletable_attributes":[],"deprecated":null,"flags":[],"fullname":"transformers.convert_slow_tokenizer.XLMRobertaConverter","has_param_spec_type":false,"metaclass_type":null,"metadata":{},"module_name":"transformers.convert_slow_tokenizer","mro":["transformers.convert_slow_tokenizer.XLMRobertaConverter","transformers.convert_slow_tokenizer.SpmConverter","transformers.convert_slow_tokenizer.Converter","builtins.object"],"names":{".class":"SymbolTable","post_processor":{".class":"SymbolTableNode","kind":"Mdef","node":{".class":"FuncDef","abstract_status":0,"arg_kinds":[0],"arg_names":["self"],"dataclass_transform_spec":null,"deprecated":null,"flags":[],"fullname":"transformers.convert_slow_tokenizer.XLMRobertaConverter.post_processor","name":"post_processor","original_first_arg":"self","type":null}},"unk_id":{".class":"SymbolTableNode","kind":"Mdef","node":{".class":"FuncDef","abstract_status":0,"arg_kinds":[0,0],"arg_names":["self","proto"],"dataclass_transform_spec":null,"deprecated":null,"flags":[],"fullname":"transformers.convert_slow_tokenizer.XLMRobertaConverter.unk_id","name":"unk_id","original_first_arg":"self","type":null}},"vocab":{".class":"SymbolTableNode","kind":"Mdef","node":{".class":"FuncDef","abstract_status":0,"arg_kinds":[0,0],"arg_names":["self","proto"],"dataclass_transform_spec":null,"deprecated":null,"flags":[],"fullname":"transformers.convert_slow_tokenizer.XLMRobertaConverter.vocab","name":"vocab","original_first_arg":"self","type":null}}},"self_type":{".class":"TypeVarType","default":{".class":"AnyType","missing_import_name":null,"source_any":null,"type_of_any":4},"fullname":"transformers.convert_slow_tokenizer.XLMRobertaConverter.Self","id":0,"name":"Self","namespace":"","upper_bound":"transformers.convert_slow_tokenizer.XLMRobertaConverter","values":[],"variance":0},"slots":null,"tuple_type":null,"type_vars":[],"typeddict_type":null}},"XLNetConverter":{".class":"SymbolTableNode","kind":"Gdef","node":{".class":"TypeInfo","_promote":[],"abstract_attributes":[],"alt_promote":null,"bases":["transformers.convert_slow_tokenizer.SpmConverter"],"dataclass_transform_spec":null,"declared_metaclass":null,"defn":{".class":"ClassDef","fullname":"transformers.convert_slow_tokenizer.XLNetConverter","name":"XLNetConverter","type_vars":[]},"deletable_attributes":[],"deprecated":null,"flags":[],"fullname":"transformers.convert_slow_tokenizer.XLNetConverter","has_param_spec_type":false,"metaclass_type":null,"metadata":{},"module_name":"transformers.convert_slow_tokenizer","mro":["transformers.convert_slow_tokenizer.XLNetConverter","transformers.convert_slow_tokenizer.SpmConverter","transformers.convert_slow_tokenizer.Converter","builtins.object"],"names":{".class":"SymbolTable","normalizer":{".class":"SymbolTableNode","kind":"Mdef","node":{".class":"FuncDef","abstract_status":0,"arg_kinds":[0,0],"arg_names":["self","proto"],"dataclass_transform_spec":null,"deprecated":null,"flags":[],"fullname":"transformers.convert_slow_tokenizer.XLNetConverter.normalizer","name":"normalizer","original_first_arg":"self","type":null}},"post_processor":{".class":"SymbolTableNode","kind":"Mdef","node":{".class":"FuncDef","abstract_status":0,"arg_kinds":[0],"arg_names":["self"],"dataclass_transform_spec":null,"deprecated":null,"flags":[],"fullname":"transformers.convert_slow_tokenizer.XLNetConverter.post_processor","name":"post_processor","original_first_arg":"self","type":null}},"vocab":{".class":"SymbolTableNode","kind":"Mdef","node":{".class":"FuncDef","abstract_status":0,"arg_kinds":[0,0],"arg_names":["self","proto"],"dataclass_transform_spec":null,"deprecated":null,"flags":[],"fullname":"transformers.convert_slow_tokenizer.XLNetConverter.vocab","name":"vocab","original_first_arg":"self","type":null}}},"self_type":{".class":"TypeVarType","default":{".class":"AnyType","missing_import_name":null,"source_any":null,"type_of_any":4},"fullname":"transformers.convert_slow_tokenizer.XLNetConverter.Self","id":0,"name":"Self","namespace":"","upper_bound":"transformers.convert_slow_tokenizer.XLNetConverter","values":[],"variance":0},"slots":null,"tuple_type":null,"type_vars":[],"typeddict_type":null}},"__annotations__":{".class":"SymbolTableNode","kind":"Gdef","node":{".class":"Var","flags":["is_ready"],"fullname":"transformers.convert_slow_tokenizer.__annotations__","name":"__annotations__","setter_type":null,"type":{".class":"Instance","args":["builtins.str",{".class":"AnyType","missing_import_name":null,"source_any":null,"type_of_any":6}],"extra_attrs":null,"type_ref":"builtins.dict"}}},"__doc__":{".class":"SymbolTableNode","kind":"Gdef","node":{".class":"Var","flags":["is_ready"],"fullname":"transformers.convert_slow_tokenizer.__doc__","name":"__doc__","setter_type":null,"type":"builtins.str"}},"__file__":{".class":"SymbolTableNode","kind":"Gdef","node":{".class":"Var","flags":["is_ready"],"fullname":"transformers.convert_slow_tokenizer.__file__","name":"__file__","setter_type":null,"type":"builtins.str"}},"__name__":{".class":"SymbolTableNode","kind":"Gdef","node":{".class":"Var","flags":["is_ready"],"fullname":"transformers.convert_slow_tokenizer.__name__","name":"__name__","setter_type":null,"type":"builtins.str"}},"__package__":{".class":"SymbolTableNode","kind":"Gdef","node":{".class":"Var","flags":["is_ready"],"fullname":"transformers.convert_slow_tokenizer.__package__","name":"__package__","setter_type":null,"type":"builtins.str"}},"__spec__":{".class":"SymbolTableNode","kind":"Gdef","node":{".class":"Var","flags":["is_ready"],"fullname":"transformers.convert_slow_tokenizer.__spec__","name":"__spec__","setter_type":null,"type":"_frozen_importlib.ModuleSpec"}},"_get_prepend_scheme":{".class":"SymbolTableNode","kind":"Gdef","node":{".class":"FuncDef","abstract_status":0,"arg_kinds":[0,0],"arg_names":["add_prefix_space","original_tokenizer"],"dataclass_transform_spec":null,"deprecated":null,"flags":[],"fullname":"transformers.convert_slow_tokenizer._get_prepend_scheme","name":"_get_prepend_scheme","original_first_arg":"add_prefix_space","type":{".class":"CallableType","arg_kinds":[0,0],"arg_names":["add_prefix_space","original_tokenizer"],"arg_types":["builtins.bool",{".class":"AnyType","missing_import_name":null,"source_any":null,"type_of_any":1}],"fallback":"builtins.function","from_concatenate":false,"implicit":false,"imprecise_arg_kinds":false,"is_bound":false,"is_ellipsis_args":false,"name":"_get_prepend_scheme","ret_type":"builtins.str","type_guard":null,"type_is":null,"unpack_kwargs":false,"variables":[]}}},"bytes_to_unicode":{".class":"SymbolTableNode","kind":"Gdef","node":{".class":"FuncDef","abstract_status":0,"arg_kinds":[],"arg_names":[],"dataclass_transform_spec":null,"deprecated":null,"flags":[],"fullname":"transformers.convert_slow_tokenizer.bytes_to_unicode","name":"bytes_to_unicode","original_first_arg":null,"type":null}},"check_number_comma":{".class":"SymbolTableNode","kind":"Gdef","node":{".class":"FuncDef","abstract_status":0,"arg_kinds":[0],"arg_names":["piece"],"dataclass_transform_spec":null,"deprecated":null,"flags":[],"fullname":"transformers.convert_slow_tokenizer.check_number_comma","name":"check_number_comma","original_first_arg":"piece","type":{".class":"CallableType","arg_kinds":[0],"arg_names":["piece"],"arg_types":["builtins.str"],"fallback":"builtins.function","from_concatenate":false,"implicit":false,"imprecise_arg_kinds":false,"is_bound":false,"is_ellipsis_args":false,"name":"check_number_comma","ret_type":"builtins.bool","type_guard":null,"type_is":null,"unpack_kwargs":false,"variables":[]}}},"convert_slow_tokenizer":{".class":"SymbolTableNode","kind":"Gdef","node":{".class":"FuncDef","abstract_status":0,"arg_kinds":[0,1],"arg_names":["transformer_tokenizer","from_tiktoken"],"dataclass_transform_spec":null,"deprecated":null,"flags":[],"fullname":"transformers.convert_slow_tokenizer.convert_slow_tokenizer","name":"convert_slow_tokenizer","original_first_arg":"transformer_tokenizer","type":{".class":"CallableType","arg_kinds":[0,1],"arg_names":["transformer_tokenizer","from_tiktoken"],"arg_types":[{".class":"AnyType","missing_import_name":null,"source_any":null,"type_of_any":1},{".class":"AnyType","missing_import_name":null,"source_any":null,"type_of_any":1}],"fallback":"builtins.function","from_concatenate":false,"implicit":false,"imprecise_arg_kinds":false,"is_bound":false,"is_ellipsis_args":false,"name":"convert_slow_tokenizer","ret_type":{".class":"AnyType","missing_import_name":"transformers.convert_slow_tokenizer.Tokenizer","source_any":null,"type_of_any":3},"type_guard":null,"type_is":null,"unpack_kwargs":false,"variables":[]}}},"decoders":{".class":"SymbolTableNode","kind":"Gdef","node":{".class":"Var","flags":["is_suppressed_import","is_ready","is_inferred"],"fullname":"transformers.convert_slow_tokenizer.decoders","name":"decoders","setter_type":null,"type":{".class":"AnyType","missing_import_name":"transformers.convert_slow_tokenizer.decoders","source_any":null,"type_of_any":3}}},"generate_merges":{".class":"SymbolTableNode","kind":"Gdef","node":{".class":"FuncDef","abstract_status":0,"arg_kinds":[0,0],"arg_names":["vocab","vocab_scores"],"dataclass_transform_spec":null,"deprecated":null,"flags":[],"fullname":"transformers.convert_slow_tokenizer.generate_merges","name":"generate_merges","original_first_arg":"vocab","type":null}},"import_protobuf":{".class":"SymbolTableNode","kind":"Gdef","node":{".class":"FuncDef","abstract_status":0,"arg_kinds":[1],"arg_names":["error_message"],"dataclass_transform_spec":null,"deprecated":null,"flags":[],"fullname":"transformers.convert_slow_tokenizer.import_protobuf","name":"import_protobuf","original_first_arg":"error_message","type":null}},"is_protobuf_available":{".class":"SymbolTableNode","cross_ref":"transformers.utils.import_utils.is_protobuf_available","kind":"Gdef"},"is_sentencepiece_available":{".class":"SymbolTableNode","cross_ref":"transformers.utils.import_utils.is_sentencepiece_available","kind":"Gdef"},"logger":{".class":"SymbolTableNode","kind":"Gdef","node":{".class":"Var","flags":["is_ready","is_inferred","has_explicit_value"],"fullname":"transformers.convert_slow_tokenizer.logger","name":"logger","setter_type":null,"type":"logging.Logger"}},"logging":{".class":"SymbolTableNode","cross_ref":"transformers.utils.logging","kind":"Gdef"},"lru_cache":{".class":"SymbolTableNode","cross_ref":"functools.lru_cache","kind":"Gdef"},"normalizers":{".class":"SymbolTableNode","kind":"Gdef","node":{".class":"Var","flags":["is_suppressed_import","is_ready","is_inferred"],"fullname":"transformers.convert_slow_tokenizer.normalizers","name":"normalizers","setter_type":null,"type":{".class":"AnyType","missing_import_name":"transformers.convert_slow_tokenizer.normalizers","source_any":null,"type_of_any":3}}},"pre_tokenizers":{".class":"SymbolTableNode","kind":"Gdef","node":{".class":"Var","flags":["is_suppressed_import","is_ready","is_inferred"],"fullname":"transformers.convert_slow_tokenizer.pre_tokenizers","name":"pre_tokenizers","setter_type":null,"type":{".class":"AnyType","missing_import_name":"transformers.convert_slow_tokenizer.pre_tokenizers","source_any":null,"type_of_any":3}}},"processors":{".class":"SymbolTableNode","kind":"Gdef","node":{".class":"Var","flags":["is_suppressed_import","is_ready","is_inferred"],"fullname":"transformers.convert_slow_tokenizer.processors","name":"processors","setter_type":null,"type":{".class":"AnyType","missing_import_name":"transformers.convert_slow_tokenizer.processors","source_any":null,"type_of_any":3}}},"requires_backends":{".class":"SymbolTableNode","cross_ref":"transformers.utils.import_utils.requires_backends","kind":"Gdef"},"tqdm":{".class":"SymbolTableNode","kind":"Gdef","node":{".class":"Var","flags":["is_suppressed_import","is_ready","is_inferred"],"fullname":"transformers.convert_slow_tokenizer.tqdm","name":"tqdm","setter_type":null,"type":{".class":"AnyType","missing_import_name":"transformers.convert_slow_tokenizer.tqdm","source_any":null,"type_of_any":3}}},"version":{".class":"SymbolTableNode","cross_ref":"packaging.version","kind":"Gdef"},"warnings":{".class":"SymbolTableNode","cross_ref":"warnings","kind":"Gdef"}},"path":"C:\\Users\\Administrator\\AppData\\Local\\Programs\\Python\\Python311\\Lib\\site-packages\\transformers\\convert_slow_tokenizer.py"}